,
.
the
in
of
der
die
and
und
to
a
is
for
den
zu
that
von
"
für
on
-
)
(
ist
The
des
an
:
auf
mit
with
be
das
are
as
eine
im
werden
I
Die
this
by
es
dem
nicht
it
dass
ein
will
Sie
sich
have
not
we
which
at
wir
auch
from
or
wird
you
/
sind
was
's
European
has
als
um
In
über
zur
oder
-@@
all
also
can
hat
einer
EU
haben
ich
Commission
our
Union
sie
so
wie
bei
Kommission
einen
'
its
?
er
aus
;
Das
!
können
their
Der
more
einem
am
nach
would
durch
but
your
been
Ich
zum
This
We
It
one
diese
Mr
un@@
s
%
should
kann
nur
dieser
de
new
vor
Wir
uns
er@@
other
daß
ver@@
Europäischen
wurde
must
Council
they
Member
noch
do
S@@
Es
an@@
States
very
re@@
there
only
...
ten
us
time
B@@
in@@
müssen
k@@
sein
wenn
these
t
about
o
aber
en
Herr
te
T@@
i
like
2
Europe
A
K@@
up
man
diesem
P@@
President
en@@
1
sehr
alle
e
countries
Hotel
eines
Mitgliedstaaten
out
into
no
who
mehr
war
t@@
s@@
C@@
if
such
sowie
D@@
M@@
bis
any
ihre
A@@
unter
were
ge@@
d@@
H@@
G@@
people
Parliament
between
zwischen
use
than
vom
ing
L@@
F@@
information
be@@
report
need
ab@@
N@@
well
b@@
3
Europäische
work
E@@
R@@
p@@
o@@
Rat
first
f@@
what
most
möchte
e@@
some
dieses
when
g@@
now
make
support
system
Ver@@
important
y
c@@
them
gibt
his
[
take
]
al@@
Präsident
able
An@@
policy
m
my
W@@
market
many
made
z@@
way
muss
ed
m@@
ein@@
keine
anderen
Bericht
ch@@
da
Europa
years
n@@
two
V@@
a@@
i@@
because
wurden
hotel
Im
Parlament
over
those
gegen
hier
had
development
d
O@@
ter
where
de@@
aus@@
unsere
economic
damit
st@@
he
end
ation
may
4
Entwicklung
u@@
Ab@@
year
world
Maßnahmen
order
Diese
ts
y@@
diesen
5
If
me
under
ers
just
10
immer
public
being
v@@
dies
Jahr
Ihnen
see
area
l@@
di@@
ung
neue
Unternehmen
through
part
sch@@
For
gen
dann
al
Wenn
jedoch
ate
ar@@
ihrer
neuen
within
denen
k
es@@
seine
services
Z@@
europäischen
political
even
right
heute
international
J@@
good
Zeit
I@@
EU-@@
possible
place
same
against
r@@
bereits
Frau
el@@
As
could
rights
l
or@@
after
Menschen
ungen
both
vor@@
zu@@
ungs@@
Informationen
national
sondern
li@@
le@@
social
measures
le
ti@@
unserer
ge
ent@@
sollte
used
h@@
j@@
on@@
country
Sch@@
Jahren
number
ischen
Be@@
.@@
habe
Rahmen
um@@
here
therefore
ro@@
auf@@
own
available
Ihre
at@@
zwei
is@@
level
finden
how
There
set
6
financial
does
&
Minister
ohne
andere
Commissioner
allen
Mit
sollten
then
products
Bereich
You
dis@@
Community
am@@
future
Zusammenarbeit
Re@@
view
g
today
20
without
ri@@
7
want
much
3@@
dazu
process
ische
free
U@@
still
Frage
last
S
w@@
case
already
mich
insbesondere
including
find
+
service
n
u
machen
particular
Ein@@
8
enden
30
proposal
point
different
Aus@@
geht
te@@
before
über@@
p
In@@
darauf
4@@
ganz
Ein
seiner
programme
si@@
ihren
further
2009
said
ensure
areas
liche
bietet
Lage
data
fact
per
liegt
agreement
el
z
b
room
great
situation
soll
human
em@@
Welt
ra@@
ated
Al@@
energy
access
viele
cooperation
Unterstützung
th@@
weil
la@@
dafür
say
Länder
help
15
ur@@
se
T
Er@@
common
But
Jahre
State
quality
course
Committee
jetzt
law
wieder
la
Vor@@
ch
it@@
Dies
provide
high
sten
tes
during
ihr
too
aid
stellen
C
cannot
einige
ob
That
since
Eine
St@@
However
believe
get
würde
c
ab
business
2010
Richtlinie
Für
taken
each
h
ern
denn
lichen
5@@
know
Land
means
allem
stehen
geben
Arbeit
selbst
go
action
based
lich
Vorschlag
systems
So
rules
e-@@
day
security
citizens
best
her
ens
example
issue
China
sp@@
x
ale
protection
debate
12
Ziel
necessary
lo@@
waren
9
city
schon
ter@@
position
think
small
co@@
kommen
eren
et
offers
ar
während
trade
as@@
clear
et@@
Herrn
three
question
Ländern
se@@
ting
2008
next
seit
sector
gen@@
bar
every
viel
wollen
E
Y@@
nun
im@@
form
bin
ad@@
2000
ersten
All
2@@
long
op@@
möglich
gut
basis
while
give
Fragen
50
Wie
Teil
On
sagen
management
drei
United
ende
change
19@@
deren
beim
B
erhalten
put
6@@
ste
rooms
mir
*
lassen
wo
unseren
problem
sk@@
million
st
Internet
_
us@@
steht
Nach
x@@
politischen
company
7@@
given
main
problems
ber@@
Und
offer
Our
large
Art
Sicherheit
der@@
needs
meine
Bei
ins
better
companies
adopted
con@@
legal
doch
Bedeutung
current
To
Un@@
Er
f
conditions
These
ag@@
weitere
2007
besteht
Bürger
ted
issues
land
full
few
ations
They
down
unter@@
D
Fall
sehen
8@@
Parlaments
etwas
far
state
ert
US
ie
worden
25
weiter
r
letzten
Group
11
ke
working
back
production
au@@
po@@
ni@@
come
region
role
dabei
health
seinen
den@@
USA
€
ating
certain
EUR
X@@
Regierung
group
qu@@
At
life
Auf
shall
9@@
growth
Gemeinschaft
000
again
Zimmer
men
pro@@
Recht
Daten
present
�
less
System
to@@
however
With
following
research
using
bringen
18@@
ger
ent
wichtig
together
os
Ar@@
account
ac@@
ma@@
control
What
line
ten@@
Rates
transport
2006
whether
Con@@
particularly
real
industry
Germany
specific
why
continue
00
around
aller
local
terms
ck@@
stellt
ere
wäre
ates
ant
framework
open
tun
Court
And
daher
ly
authorities
ings
inter@@
große
private
ja
Staaten
Mar@@
führen
Namen
decision
könnte
Was
innerhalb
gi@@
Treaty
O
Ro@@
internationalen
power
result
second
P
ak@@
chen
Ende
Verfügung
activities
Artikel
government
Programm
Auch
welche
Möglichkeit
tions
sowohl
Problem
located
budget
special
Rolle
bi@@
du
ap@@
ol@@
become
großen
vote
respect
Co@@
ul@@
Euro
é@@
global
another
ung@@
sh@@
unterstützen
always
water
gehen
Hilfe
stay
general
100
legislation
Stadt
projects
did
environment
2005
mo@@
progress
hope
Region
einmal
bo@@
major
einfach
europäische
hatte
davon
che
om@@
Zusammenhang
so@@
M
Politik
km
Probleme
project
ä@@
t-@@
Weise
her@@
que
EN
Pro@@
ans
period
fully
ir@@
darüber
gegenüber
implementation
Thema
muß
't
children
making
Zukunft
crisis
ve
ne
verschiedenen
ne@@
per@@
Kommissar
women
towards
Mittel
Bo@@
third
2004
ger@@
Umsetzung
increase
ta@@
various
food
erreichen
2003
men@@
institutions
eigenen
nationalen
il@@
ine
German
pre@@
bieten
Aber
House
Mo@@
ihnen
L
Als
em
Seite
Kollegen
ser@@
field
no@@
Schutz
create
competition
vi@@
especially
whole
regional
key
experience
besonders
close
sollen
policies
When
standards
economy
R
beiden
zwar
kein
ler
sen
Wirtschaft
13
2001
zi@@
Mrs
tion
politische
approach
32
centre
provided
Auf@@
Ihr
regard
2002
Directive
resources
old
Weg
Frauen
ci@@
matter
single
öffentlichen
proposals
ko@@
several
0@@
isch
kommt
proposed
18
wissen
ing@@
subject
alles
effective
ER@@
Deutschland
14
tra@@
site
erste
di
a-@@
done
found
Kunden
ca
ce
40
page
age
'@@
safety
Beispiel
res
interest
ic
members
ment
ds
rate
Website
hand
concerned
staff
New
ou@@
par@@
weiterhin
ken
strategy
kon@@
ei@@
directive
me@@
Finanz@@
Di@@
Ma@@
least
Millionen
les
forward
price
est@@
start
environmental
days
include
arbeiten
Service
ob@@
vielen
employment
Ge@@
24
1@@
befindet
Zu@@
look
Um
Verfahren
itself
Ebene
going
Förderung
modern
Kon@@
-S@@
location
hinaus
range
Programme
man@@
wirklich
markets
16
importance
N
Ex@@
Affairs
ö@@
unser
Über@@
really
meiner
positive
investment
taking
y-@@
nehmen
efforts
ous
costs
International
ex@@
training
etwa
Ihrer
weniger
name
ze
fen
non-@@
Ziele
Grundlage
EN@@
Zugang
natürlich
ischer
Seiten
often
Tag
unterstützt
Lösung
meeting
sa@@
dort
money
once
schaffen
sen@@
building
He
product
est
application
society
gilt
results
individual
September
red
Europas
ber
resolution
value
Ch@@
opinion
due
stand
Dieses
Alle
V
Situation
entfernt
alen
cht@@
until
off
Um@@
En@@
ES
list
direkt
allow
Bank
opportunity
personal
provides
th
France
software
möchten
technology
No
World
online
F
fast
indem
ding
website
ist@@
iert
licher
wirtschaftlichen
ask
G
light
reform
ha@@
Produkte
among
tri@@
dessen
away
v
improve
Markt
text
something
ise
ons
An
Unter@@
addition
ep@@
wish
ally
rapporteur
parties
ati@@
Anwendung
regions
air
ator
daran
do@@
pro
ieren
hin@@
gemeinsamen
welcome
play
call
Personen
Ihren
da@@
gemacht
side
excellent
programmes
responsible
months
Par@@
responsibility
Regionen
Meinung
Dieser
customers
tige
Bezug
gel@@
yet
macht
Haupt@@
ebenfalls
technical
Verordnung
gentlemen
points
elle
Inter@@
halten
Hier
Lo@@
ur
Form
education
Po@@
risk
21
Hotels
cher
Bereichen
Leben
Auswirkungen
Strategie
negotiations
ru@@
little
internal
cht
ut@@
recent
rather
Rechte
17
ck
1999
things
mit@@
principle
tax
nach@@
Abkommen
jeder
having
ihrem
einigen
requirements
ben
darin
d-@@
all@@
19
November
plan
ors
solution
home
family
Le@@
Li@@
related
views
ary
Uhr
version
total
Behörden
design
nen
mi@@
ü@@
via
required
cases
del
meisten
los
him
ts@@
procedure
groups
ina
might
nämlich
let
Da
K
unserem
called
Deshalb
Verbesserung
wichtige
Qualität
aufgrund
ph@@
contact
above
un
bereich
step
De@@
Kosten
Sp@@
ran@@
17@@
and@@
address
ho@@
sozialen
After
sogar
content
mon@@
greater
nächsten
bitte
ven@@
Grund
su@@
ach@@
ec@@
zusammen
regulation
AL@@
Mon@@
essential
handelt
Verhandlungen
Kinder
cultural
.com
Grund@@
agree
ER
Vorschläge
Hinblick
existing
ST@@
ek@@
sei
sin@@
0
town
Reihe
Entscheidung
developing
Fraktion
currently
times
gesagt
needed
seinem
achieve
Ent@@
Madam
schen
ster
etc
Members
zen
IN@@
for@@
thank
Präsidentin
len
One
ments
je
quite
makes
bring
funds
Presidency
attention
dürfen
impact
difficult
show
setzen
Bedingungen
recht
Arbeits@@
behalf
amendments
ity
force
tr@@
betrifft
appropriate
Y
hin
besser
others
car@@
würden
ihm
Aussprache
II
states
gu@@
X
du@@
questions
Dienstleistungen
®
darf
Rechts@@
gemeinsame
fi@@
April
fer@@
network
ches
Or@@
Gesellschaft
re
ded
Interesse
solche
AR@@
durch@@
objectives
Haushalts@@
15@@
gute
tigen
Gebiet
Th@@
Russia
favour
erte
60
brauchen
strong
nutzen
sti@@
Haus
reason
ass@@
deutlich
zurück@@
Beziehungen
vier
w
ange@@
context
ihn
natural
vo@@
art
prices
Software
1.@@
developed
ellen
TV
Car@@
concerning
serious
ability
pa@@
sustainable
keinen
erforderlich
ka
four
sub@@
words
Se@@
sicher
Durch
Ansicht
=
lan@@
könnten
EC
over@@
Unsere
known
führt
chten
gt
Gruppe
Bar@@
short
minutes
AN@@
capital
young
liches
complete
Außerdem
ie@@
pl@@
erreicht
Article
Menschenrechte
To@@
involved
ed@@
led
assistance
Fortschritte
ladies
unternehmen
bedeutet
beispielsweise
Berlin
significant
ative
Vertrag
ad
concerns
Ort
ta
16@@
eb@@
agreed
left
act
enjoy
genau
erst
ell
meet
statt
additional
ia
held
Punkt
kind
weit
relations
min@@
ationen
deal
und@@
past
é
interests
Tra@@
klar
ft
tive
member
changes
ago
IP
cu@@
workers
Ri@@
Information
rates
bar@@
ure
ters
share
gestellt
Möglichkeiten
Beitrag
pe@@
deshalb
jeden
nature
gerade
themselves
peace
eller
á@@
go@@
integration
ms
climate
80
Abstimmung
simply
central
clearly
active
pi@@
established
decisions
across
station
fall
ic@@
sea
she
easy
Her@@
wer@@
Republic
Gu@@
ene
allerdings
besten
gesamten
Rück@@
wegen
Forschung
Development
tischen
eg@@
bleiben
ker
Vereinigten
date
27
gehört
einzelnen
potential
tragen
freedom
Aus
visit
along
directly
solutions
nichts
agreements
ves
Initiative
low
Vorschriften
objective
please
took
findet
ens@@
upon
dar
longer
road
ff@@
bereit
sc@@
Bau@@
initiative
request
Frankreich
glaube
thus
voll
lu@@
Zu
mu@@
Von
bu@@
Demokratie
standard
partners
EL@@
internationale
ma
ß@@
Mitglieder
gs
aim
Ergebnisse
Verantwortung
democratic
wi@@
Schaffung
house
AS@@
democracy
Wirtschafts@@
notwendig
fördern
person
ell@@
French
Italy
14@@
top
ender
Ko@@
communication
beautiful
direct
Umwelt
sion
La
fest
user
ps
22
Daher
tu@@
Government
500
verwendet
events
Republik
facilities
cost
early
jobs
weiteren
Restaurant
effect
car
final
ideal
ig@@
wide
ging
Richtung
heart
rei@@
General
apply
takes
Investitionen
sure
Neu@@
Ad@@
fragen
language
event
schnell
wa@@
fundamental
live
Justice
under@@
Verbraucher
Wasser@@
Bekämpfung
lead
foreign
Markt@@
dialogue
AT@@
war@@
consider
Spain
bekannt
res@@
aten
relevant
he@@
amount
euro
pay
verbessern
actions
fin@@
av@@
au
soon
Steuer@@
enough
consumers
ermöglicht
term
either
weltweit
Dank
decided
Wachstum
zeigt
tion@@
according
benefit
kl@@
century
IT@@
Bevölkerung
lot
ver
bel@@
br@@
Institutionen
ance
angenommen
Schritt
lange
Weitere
liegen
gemeinsam
Ergebnis
ausge@@
Portugal
type
derzeit
develop
Landwirtschaft
mis@@
promote
helfen
created
Geschäfts@@
ziehen
designed
eln
IT
population
AG
majority
mar@@
wichtigsten
care
keep
har@@
From
Turkey
eh@@
maßnahmen
joint
tet
wirtschaftliche
Angelegenheiten
ges
media
ner
ren@@
material
erung
pages
GmbH
goods
history
Kontrolle
stage
70
20@@
werde
feel
Debatte
ra
Lu@@
agricultural
200
Am
commitment
ways
Ukraine
form@@
gh@@
thing
ier@@
levels
Bestimmungen
$
gegeben
dern
throughout
erten
www.@@
12@@
E-@@
kleinen
sprechen
einschließlich
tor
Com@@
team
Integration
mer@@
almost
IS@@
breakfast
funding
2.@@
Wettbewerb
Cor@@
success
W
Liste
geführt
Beschäftigung
outside
verschiedene
ses
Sicherheits@@
des@@
Jahres
Bu@@
space
EC@@
EIB
comes
near
Su@@
wobei
ES@@
verfahren
mer
wichtigen
remain
Gesundheit
Israel
friendly
fo@@
Ho@@
five
pool
Nutzung
eri@@
Ausschuss
included
alten
press
lin@@
Türkei
tre@@
23
wor@@
af@@
Erweiterung
Nähe
Japan
No@@
receive
Umwelt@@
lichkeit
Krise
hoffe
hatten
va
spielen
sche
Doch
s-@@
reach
though
procedures
ations@@
capacity
mal
Man@@
big
never
seen
priority
works
sta@@
exchange
living
ant@@
practice
gebracht
provisions
later
extremely
package
entwickelt
focus
Handel
principles
Geschichte
June
Herren
hi@@
guarantee
UN@@
So@@
links
increased
night
oft
tan@@
guests
il
son
voted
Please
bzw.
gleichzeitig
Projekt
Projekte
hinsichtlich
vielleicht
restaurant
gleichen
performance
body
Economic
community
ard
fight
ern@@
How
verfügt
users
ermöglichen
leben
Windows
com@@
Gra@@
gewährleisten
rund
Man
regarding
1998
includes
true
By
wenig
treatment
DE
end@@
13@@
Bi@@
knowledge
reduce
comfortable
parts
looking
Paris
mentioned
civil
Version
Mit@@
bare
Lisbon
turn
Verwendung
nimmt
American
Since
besch@@
concern
basic
Tatsache
leading
Industrie
zusammen@@
up@@
Erklärung
opportunities
enthält
enz@@
Aufgabe
higher
soziale
Rechtsvorschriften
ebenso
tig
insgesamt
Einführung
fest@@
Ausdruck
achieved
gel
bleibt
konnte
note
table
creation
Pi@@
darum
ces
Seit
Mitglied
Einsatz
supply
Italien
Ihrem
presented
Erfolg
unique
lässt
enn@@
Central
Antwort
received
hard
en-@@
La@@
situated
http
í@@
90
Damen
Sozial@@
{
gemäß
connection
music
Convention
hei@@
actually
hätte
book
everything
chte
ges@@
file
wei@@
CO@@
bed
contribution
idea
demand
Damit
America
ben@@
hal@@
land@@
carried
equipment
zeigen
schaft
jedem
test
ite
National
Juni
-B@@
Berichterstatter
military
1,@@
send
gas
run
Darüber
Mi@@
dar@@
Dis@@
0.@@
lage
IC@@
pp@@
bestimmte
ever
ah@@
enthalten
industrial
understand
doing
consumer
ing-@@
ari@@
Mio
Bildung
Reform
ang@@
beitragen
baren
providing
00@@
Agreement
accept
Gen@@
neu
ry
reports
ones
Regierungen
operation
dy
week
Landes
à
tionen
ys
considered
Zahl
det
December
ders
Press
internet
fünf
chen@@
billion
external
legen
response
Qu@@
release
party
Partner
card
center
pf@@
Ber@@
below
Mitteilung
reasons
San
28
Dialog
face
allows
gab
traditional
Ausschusses
kan@@
Spanien
Ru@@
Preis
features
effects
mehrere
culture
East
tische
sorgen
prevent
Verbindung
May
professional
är@@
bus
lose
beach
draft
bei@@
increasing
@
öffentliche
ship
hours
limited
Auffassung
although
ks
Zentrum
ty
Tri@@
bil@@
cor@@
bre@@
innovative
famous
bestimmten
efficient
successful
values
balance
try
ano
10@@
enable
str@@
programm
aspects
geb@@
stability
South
}
genommen
kleine
Regulation
Organisation
aware
einzu@@
added
ang
befinden
applications
danken
program
Minuten
return
zeit
Blick
jede
bank
Dezember
Park
Nach@@
co
Zum
enen
Africa
z.B.
gehören
Iran
coming
forms
35
tern
setting
tur@@
gra@@
treffen
review
Themen
politik
anderer
ation@@
model
1997
Notwendigkeit
Lösungen
board
choice
Russland
dr@@
tic
bestehen
job
reached
Mal
net
El@@
jedes
former
Bemühungen
hand@@
entwickeln
Mitgliedstaat
move
anzu@@
Fund
cks
U
fair
moment
Hintergrund
WTO
Land@@
tel
challenges
2011
UN
committee
recently
eu@@
4.@@
Kar@@
governments
verbunden
ana
Gelegenheit
re-@@
out@@
London
original
remains
sieht
denke
Änderungen
inc@@
3.@@
August
certainly
For@@
isches
instruments
Gerichtshof
Fahr@@
Mor@@
fa@@
Öffentlichkeit
Geld
außerdem
lack
26
organisations
..
Si@@
cher@@
sectors
Sk@@
ats
heißt
wohl
Zeitpunkt
labour
THE
ales
benefits
Interessen
asked
Au@@
Finally
ment@@
eng@@
built
Platz
heit
Kolleginnen
steps
previous
details
neuer
enlargement
o-@@
Energie
Vor
movement
Pre@@
einge@@
bet@@
5.@@
series
half
UK
ba@@
Foreign
RO@@
possibility
ast@@
H
customer
shows
leisten
writing
He@@
code
matters
gern
31
mittel
Welt@@
Durchführung
ven
Austria
commercial
regards
ster@@
Greece
fe
и@@
bekommen
sense
Sa@@
Ne@@
Kultur
add
Änderungsanträge
Mai
ence
enter
P-@@
richtig
CH@@
Today
fahren
latest
tiert
fishing
weiß
Q@@
nuclear
bl@@
app@@
Finanzierung
Entschließung
zurück
partner
financing
legislative
Gründen
Höhe
quickly
status
Abgeordneten
completely
gl@@
gleich
perfect
English
Policy
My
somit
Änderungsantrag
lei@@
First
ties
zweiten
Regeln
unseres
ann@@
innovation
entire
nothing
conference
bisher
ling
erster
Unser
office
Gesamt@@
na@@
systeme
March
beginning
Verpflichtungen
tieren
Text
mat@@
whose
we@@
Some
Dabei
contains
game
oil
read
tiger
tem
submitted
criteria
hohen
Management
id
siehe
contribute
1996
genden
meinen
ble
ill@@
gelten
2020
protect
waste
verfügen
stop
ET@@
St
weisen
annual
durchgeführt
pen@@
conclusions
front
rec@@
>
web
simple
stra@@
fe@@
ganzen
equipped
ground
purpose
Konferenz
por@@
Euro@@
rule
voll@@
300
Bar
folgenden
supported
infrastructure
lic@@
Ireland
Gr@@
Anfang
bes@@
independent
AC@@
walk
rest
Entwicklungs@@
großer
Kontakt
Bereiche
activity
Social
Entscheidungen
mel@@
pr@@
mobile
auszu@@
charge
eigene
function
tor@@
Du@@
Monaten
discussion
Min@@
sch
ori@@
mean
Prozess
Do@@
agenda
ages
Ni@@
ändern
berg
Beihilfen
Barcelona
October
reduction
priorities
ierung
Während
Woche
monitoring
weise
EM@@
overall
lagen
Let
hr@@
size
gleich@@
sagte
möglichkeiten
neben
März
similar
Wert
Gemeinschafts@@
OR@@
Therefore
treten
More
ban@@
Anforderungen
ism
long-term
lang
ton
Preise
Angebot
Systems
Kosovo
brought
fl@@
Vertreter
Agenda
comp@@
IS
europäischer
75
highly
zweite
efficiency
Plan
style
genannten
persons
stark
2012
materials
fer
29
businesses
travel
study
ators
RA@@
falls
gestimmt
seems
Binnenmarkt
führung
rich
Einzel@@
S-@@
January
45
integrated
mind
Am@@
sto@@
lines
pu@@
holiday
AM@@
distribution
implemented
Me@@
don
tatsächlich
document
Aktivitäten
Nationen
Wettbewerbsfähigkeit
zeit@@
files
Anzahl
zunächst
ganze
anti@@
ste@@
Brussels
implement
creating
SA@@
bringt
1-@@
indeed
gesamte
places
lies
paid
prepared
Raum
ali@@
park
ihres
fallen
approved
Innovation
Herausforderungen
aler
shown
dadurch
ality
source
July
plans
check
assessment
setzt
vergangenen
gerne
1995
bau@@
safe
gives
lediglich
2013
published
Per@@
Zur
sites
sound
reforms
Änderung
ies
Standpunkt
Here
effort
sur@@
Pa@@
complex
construction
mm
initiatives
organisation
payment
Verkehrs@@
ore
applied
Bitte
Mehrheit
kt
image
amendment
Ben@@
largest
transparency
suchen
produced
aufge@@
credit
guten
calls
Zeit@@
Kenntnis
Kommissarin
pressure
zehn
expected
Lebens@@
Produktion
direction
huge
ED@@
größten
mann
Italian
Oktober
comprehensive
sektor
ski
gar
can@@
establish
computer
nice
tors
relation
clean
völlig
200@@
Western
require
später
property
verwenden
everyone
Mitarbeiter
technologies
Fu@@
SP@@
sent
nie
competitive
Br@@
ving
analysis
West@@
gro@@
Stellungnahme
follow
Services
link
ess
wichtiger
accordance
British
cken
answer
gesch@@
ak
Transparenz
vertreten
Fällen
accession
Im@@
structure
Auswahl
ß
solchen
Amsterdam
Organisationen
Folgen
geschlossen
Spiel@@
erneut
Ha@@
behind
US-@@
Person
Tage
Parteien
Handels@@
Ta@@
pri@@
del@@
choose
hohe
Erfahrung
ful
documents
eingesetzt
ort
Daten@@
Kampf
с@@
Ser@@
regulations
Wort
structural
Regelung
Griechenland
hoch@@
uses
ler@@
ess@@
hotels
Bel@@
aufgenommen
fu@@
al-@@
administrative
Of
Familie
six
EI@@
weder
stands
requires
Hand@@
minimum
anderem
er-@@
stell@@
Rights
ums
closed
elements
are@@
Januar
Grenzen
Hand
entsprechenden
Flug@@
Go@@
Präsidenten
Fach@@
els
äußerst
ris@@
Nor@@
Spanish
ente
Now
Wahl
equal
gung
urs
City
2-@@
gr@@
fra@@
fort@@
pres@@
Design
zahlreiche
thanks
Ä@@
Bild
Sprache
produce
sel@@
Anstrengungen
reviews
tools
ade
Ansatz
Forschungs@@
Verwaltungs@@
ó@@
came
Sh@@
Zeitraum
ierte
guest
Juli
alternative
double
rise
growing
ierten
types
Furthermore
Vi@@
Annahme
van
Pal@@
Ü@@
frei
Position
stelle
prüfen
erzielt
Stelle
freien
weiter@@
Gewalt
scientific
fordern
leave
bessere
Gefahr
berücksichtigt
stri@@
ther@@
improving
digital
bau
verkehr
än@@
Team
bri@@
Ressourcen
floor
kosten
folgt
bad
Wasser
verpflichtet
Jo@@
log@@
lower
obwohl
lung
iger
verstehen
ines
größte
festgelegt
Mediterranean
Zusammen@@
film
instrument
perhaps
poverty
,@@
angesichts
Poland
build
competitiveness
Verwaltung
allowed
banks
cause
tt@@
relating
gesetzt
easily
j
Kraft
search
tel@@
met
Mittel@@
king
col@@
Conference
Security
mal@@
nationale
beschlossen
server
avoid
strengthen
keyword
schließen
War@@
elections
innen
DER
legt
allgemeinen
folgende
gende
ensuring
geschaffen
started
Sonder@@
technischen
meinem
Staats@@
Gar@@
summer
participation
option
video
Schritte
Programms
emissions
bezüglich
phone
ve@@
Bundes@@
violence
mission
amp@@
Ac@@
Web@@
д@@
popular
conflict
Aspekte
Market
speak
Groß@@
IL@@
IM@@
Sal@@
written
aims
giving
tro@@
bit
statement
konnten
See
Arbeitnehmer
Also
strategic
scope
North
crucial
Wel@@
reference
ll@@
scheint
illegal
Sinne
Server
Reformen
AG@@
gan@@
EP@@
Brüssel
6.@@
trans@@
beyond
hält
alität
а@@
During
Funktion
vorgelegt
Aufmerksamkeit
C-@@
Meer
versch@@
Ste@@
Medien
representatives
Umgebung
Por@@
einzige
Kingdom
airport
versuchen
ju@@
rural
tete
ien
Public
Punkte
ying
Preis@@
Einrichtung
reg@@
cover
accommodation
damage
Freiheit
ir
Behandlung
Herzen
official
forces
base
bestehenden
Centre
jeweiligen
schriftlich
eher
leicht
Ju@@
ready
Hoch@@
adoption
na
iz@@
regionalen
lau@@
atmosphere
cs
Bürgern
ino
schließlich
Nur
ev@@
besondere
sive
stu@@
pleased
Gi@@
ish
Natur
affected
stellung
Nord@@
practical
ass
ese
Linie
Königreich
halte
aimed
reading
nis
25@@
dan@@
bevor
kte
raum
ef@@
operating
York
OF
cities
Although
tool
ya
tung
aufzu@@
consequences
Czech
deutschen
sechs
0,@@
äre
vorgeschlagen
Lin@@
plant
Kultur@@
Berichts
humanitarian
Museum
sm@@
tz@@
bin@@
Te@@
prozess
met@@
Informations@@
school
LA@@
Schlussfolgerungen
Erfahrungen
adopt
nahm
zer@@
target
une
ast
developments
variety
partnership
committed
cal
alisierung
Dinge
PC
island
While
maximum
instead
Office
budgetary
teilen
message
pol@@
tigung
concept
Gesundheits@@
allein
lat@@
transfer
Fo@@
Kriterien
Har@@
werk
zone
West
terrorism
kre@@
Netherlands
Arbeitsplätze
compromise
task
EG
EL
verhindern
Association
Party
offered
sing
Kur@@
intended
on-@@
vorgesehen
A-@@
carry
Vereinbarung
border
gender
23@@
Kinder@@
erfüllen
Business
Moreover
aktuellen
EU@@
Diskussion
Ba@@
guidelines
farmers
improved
kam
09
Den
solidarity
privaten
ette
class
Trade
encourage
justice
Insel
tik@@
dung
demokratischen
Erachtens
wider@@
abzu@@
außerhalb
5-@@
self-@@
tell
establishment
OS
word
entsprechend
Gemeinsamen
ausgestattet
Gäste
Fre@@
tiges
EA@@
expressed
highest
Tur@@
Polen
Initiativen
2,@@
Österreich
nis@@
sal@@
EG@@
cohesion
University
became
AB@@
erklärte
Many
Instrument
agriculture
Heute
behandelt
nor
average
ECU
meines
erklärt
Stärkung
onen
sit@@
teile
om
Verkehr
rä@@
vollständig
Stunden
distance
heutigen
fordert
Jahrhundert
3-@@
tim@@
section
Privat@@
wer
Spiel
covered
Z
challenge
Lissabon
01
teten
ungs-
employees
immediately
Unter
restaurants
erungs@@
co-@@
erfolgt
Mal@@
processes
,000
Fl@@
mp@@
technische
networks
Tier@@
о@@
operations
Web
je@@
enterprises
GDP
enz
mark
ics
Macht
leg@@
erwarten
umgesetzt
ON@@
mein
lives
alism
opening
fields
win@@
az@@
Sache
rit@@
item
sicherzustellen
AD@@
Stabilität
Prüfung
contract
measure
decide
getan
Wahl@@
secure
ID@@
borders
30@@
fil@@
Arbeiten
ron@@
anti-@@
bro@@
regime
Vertrauen
stärker
Action
unemployment
stre@@
IN
Schwierigkeiten
UR@@
erwartet
ou
acc@@
platz
ON
mainly
extent
gest@@
Ms
speed
powers
provision
Gruppen
tru@@
weg
diejenigen
benötigen
Research
implementing
sports
Bürgerinnen
Personal
gar@@
Nr
Ban@@
erg@@
AND
harmon@@
Anerkennung
wenige
vol@@
Rei@@
isten
ash@@
leaders
extra
lie@@
risks
neues
е@@
Einrichtungen
sales
reduced
genießen
leider
administration
Its
Energie@@
Einigung
fish
Bet@@
Aufgaben
drive
coordination
ör@@
Tro@@
Prioritäten
draw
geworden
ideas
Ö@@
Kor@@
7.@@
Partnerschaft
apartment
interested
finance
US@@
Gegen@@
mindestens
caused
goes
Op@@
hätten
ären
express
reality
historical
ack@@
verbessert
Bewertung
Beginn
bodies
death
volle
month
Ku@@
Vorteile
hoch
tig@@
wieder@@
genutzt
Afghanistan
rel@@
daily
Basis
languages
kurz
Einklang
Hotel@@
vers@@
promoting
Meine
Technologie
Environment
interesting
bur@@
discussions
port
yn@@
generation
click
fine
finanziellen
crime
Transport
Irland
erk@@
finally
geh@@
sport
trotz
zusätzliche
ists
kommenden
weeks
negative
enten
hold
CA@@
inn@@
Fonds
likely
lt
Ober@@
offering
Arbeit@@
Strand
effectively
Val@@
frage
stoffe
methods
advantage
Linux
Technologien
modified
schützen
options
Rechnung
Club
Praxis
zahlen
sor@@
gend
Booking.com
seines
ns
eigentlich
Dazu
gefunden
confidence
signed
ably
Küche
reichen
Allerdings
folgen
bel
vorschriften
pe
starting
practices
Systeme
Ministers
rat
Vo@@
bilden
electronic
box
Milliarden
processing
Frieden
laws
UNG
erungen
beide
Stadt@@
enti@@
häufig
sources
pass
worldwide
Produkt@@
wählen
zudem
char@@
1994
ga@@
Russian
Armut
ourselves
98
conclusion
Vertrags
late
ents
markt
staatliche
poor
Center
Em@@
IP@@
uni@@
Fi@@
Tagesordnung
wert
commitments
ften
Vereinten
Leitlinien
Sub@@
entspricht
äu@@
Druck
Mag@@
Gebieten
useful
Mat@@
numerous
tation
Selbst@@
maintain
è@@
Energy
Dr
Sektor
Folge
fisheries
Präsidentschaft
Ak@@
cli@@
Fehler
len@@
Ap@@
ini
round
Ger@@
Staat
tätig
Einige
era
ok@@
E-Mail
Tagen
Nations
Gästebewertungen
Dar@@
CD
traffic
players
rechte
Villa
optim@@
sei@@
Natur@@
village
supporting
detailed
train
relationship
happy
ständig
veröffentlicht
debt
größere
verantwortlich
Kern@@
verb@@
uss@@
sets
gesehen
Secretary
flexible
erfolgreich
quiet
wine
sofort
raised
High
cut
Firma
expect
institutional
Ter@@
nahe
ants
Wochen
union
medi@@
oben
ology
Sen@@
Sicht
discussed
yer
Anfrage
Flughafen
alone
Beitritt
entry
Werte
barkeit
tal@@
Empfehlungen
entscheiden
rechts
ness
introduced
changed
globalen
24@@
Health
lernen
Ra@@
betreffenden
planning
Sport@@
99
Instrumente
stärken
cl@@
star@@
yl@@
Bal@@
circumstances
gten
Wahlen
Tor@@
zes
historic
Tel
begrüße
Solidarität
Monate
income
sufficient
consultation
separate
bs
obligations
closely
gewährleistet
Energi@@
darstellt
despite
bald
morgen
übernehmen
33
hen
Col@@
ft@@
download
eben
Musik
Hinsicht
Vergangenheit
transparent
method
cre@@
#
voting
ferner
arbeit
Ausgaben
Konzept
mm@@
child
fre@@
Online-@@
Your
Falle
'll
vel@@
neu@@
Forum
od@@
goal
Fest@@
zahlreichen
Site
Bad
schutz@@
ear@@
Opfer
ismus
introduction
ür@@
supports
alis@@
head
news
assen
nachhaltige
Frühstück
sed
got
limit
cur@@
defined
vital
Even
Chinese
ro
FR
sec@@
8.@@
friends
Überwachung
Angaben
Abschluss
map
granted
wahrscheinlich
eck@@
elles
ord@@
entsprechende
increasingly
super@@
IG@@
ising
Sweden
Viele
students
т@@
Du
getroffen
San@@
schutz
Inhalt
ität
talk
green
Cas@@
ff
Wege
Hel@@
stimmen
Tagung
za
Beteiligung
sis
saying
burg
jo@@
bedarf
Sea
Über
animal
regular
kannst
laufen
Ausbildung
ada
hinter
Luxembourg
Recht@@
berücksichtigen
2015
Is
ek
wanted
Dienste
critical
EF@@
braucht
parking
accepted
dienen
currency
Dec@@
OL@@
ls
richtige
colleagues
Vielfalt
lösen
delivery
begin
mor@@
selection
ün@@
ga
refer
sign
tomorrow
helpful
discuss
apartments
mehreren
anders
join
begrüßt
sometimes
Ti@@
teil
Microsoft
tions@@
erforderlichen
95
fla@@
gewesen
ausschließlich
ah
gre@@
learn
warum
Tat
Romania
Natürlich
placed
inform@@
Dokument
lokalen
ländlichen
9.@@
worked
far@@
e-mail
Belgium
namely
Klein@@
dringend
besonderen
Bilder
stated
finanzielle
star
Bur@@
Protokoll
Entwicklungen
modernen
48
Mu@@
chance
4-@@
erfüllt
versucht
continued
victims
Koordinierung
letzte
vis@@
player
Umfang
aff@@
son@@
Obwohl
Stand
Da@@
lost
Standards
denken
trägt
stellte
linked
Wei@@
animals
wenden
ire
Berg@@
alised
Sti@@
Enterprise
Wi@@
influence
34
Prä@@
zumindest
Kre@@
Tätigkeit
beste
Do
Agrar@@
Urlaub
Wor@@
domestic
payments
proper
bathroom
don@@
wo@@
hor@@
ously
paper
Only
Anti@@
Nutzen
clients
ergreifen
shopping
Anteil
überhaupt
bra@@
genug
Zustimmung
gebiet
vollen
marketing
freie
ase
February
Neben
experts
Sil@@
flo@@
paar
ero@@
chtung
wing
gelegt
vergessen
opened
DI@@
fol@@
Background
Einhaltung
recommendations
ple@@
India
authority
Sitzung
loss
congratulate
ING
purposes
Schlusselwortern
Schul@@
Restaurants
vehicles
uren
associated
kan
probably
stets
28@@
historischen
Res@@
Zweitens
listed
nahme
med
Atmosphäre
Le
schreiben
erhöhen
represent
gerecht
°
в@@
followed
Federal
Hu@@
ßen
Room
ca@@
65
Free
serve
substantial
hol@@
id@@
concrete
represents
zed
dra@@
regionale
dig@@
Not
establishing
Wohn@@
Bio@@
bedingungen
protected
ser
una
Aufenthalt
Terrorismus
BIP
Green
All@@
strengthening
zation
ws
notwendigen
Zweck
gang
umfasst
scher
bestimmt
Bas@@
Wein@@
laden
Angelegenheit
400
29@@
stable
oll@@
aktiv
1992
morning
prä@@
л@@
unterschiedlichen
eindeutig
Zudem
normal
Lassen
kten
Iraq
ke@@
Plat@@
AS
Dateien
zeiten
erkennen
thought
ativen
Des@@
ner@@
fac@@
stand@@
games
Gebiete
Beschäftigungs@@
scale
gener@@
bzw
unten
ba
scheme
schwer
ce@@
Gebäude
understanding
minister
erlaubt
Wunsch
Mil@@
Amendment
Produktions@@
Financial
Anspruch
abge@@
darunter
concluded
usually
positions
welches
phase
bal@@
meetings
Osten
Chi@@
Schließlich
rechtlichen
minute
Gipfel
eter
Sol@@
ars
machine
reducing
wesentlich
Engagement
informed
ku@@
Ausschuß
betroffenen
nu@@
pat@@
hören
nationaler
Prime
Phase
möglicherweise
emp@@
1993
KMU
plants
Tre@@
managed
alte
möglichen
demands
ends
email
manner
verfügbar
considerable
selected
collection
IF@@
ets
Eastern
96
con
anything
fähigkeit
gekommen
kaum
Agriculture
000@@
bewusst
dienste
eingeführt
Prozent
endlich
ulation
comments
insurance
Code
Asia
staatlichen
Star
Bra@@
dri@@
36
TR@@
derzeitigen
gezeigt
Debian
geändert
broad
nt
länder
street
rück@@
organised
schi@@
enst@@
2014
verfolgen
Grenz@@
nachdem
persönlichen
ik
investigation
lesen
Kunst@@
mes
expenditure
ehr@@
playing
tw@@
konkrete
Fer@@
heard
mention
medical
Falls
gleiche
Internet@@
Airport
skills
isch@@
Datei
trading
According
02
Verfassung
zug
ße
Google
ani@@
trust
überzeugt
Absatz
person@@
running
referred
Entwurf
erzielen
mountain
Februar
improvement
edi@@
ach
Ferner
compliance
ss@@
Indeed
SMEs
Untersuchung
tics
cross-border
Wirtschafts-
sions
fuer
Cre@@
Kunden@@
danke
People
origin
exist
stes
Thank
Banken
families
suitable
participate
correct
wesentlichen
lungs@@
pan@@
doubt
ban
150
tourism
gruppe
dient
offen
1990
beginnen
begrüßen
dly
says
regulatory
Delegation
Vorhaben
As@@
sicherheit
eingerichtet
satz
police
Bor@@
RE@@
IR@@
in-@@
cally
fiscal
yp@@
stock
tiv@@
Pol@@
Produkten
Schutz@@
produ@@
III
Krieg
stress
getting
unbedingt
Belgien
trying
operators
Märkte
Fe@@
consumption
Schweden
plus
ha
chs
generally
Secondly
führte
stat@@
vermeiden
Ur@@
Haushalt
Human
Gas@@
compared
specifically
Benutzer
Strategy
images
essen
producers
recognition
element
Analyse
so-called
fahrt
Wer
spricht
Bro@@
targets
Berichterstatterin
sol@@
SO@@
difficulties
T-@@
De
liber@@
Why
garden
tt
alismus
post@@
Red
Win@@
spar@@
amerikanischen
49
gew@@
PR@@
Roma
facing
tar@@
strategie
š@@
Denn
ungsp@@
fun@@
moderne
governance
Bulgaria
senden
Qualitäts@@
kennen
Kat@@
I-@@
Switzerland
comfort
track
gem@@
möglichst
structures
AL
Afrika
discrimination
Bre@@
extensive
visitors
Reg@@
jeweils
Fischerei@@
genannt
walking
automatisch
allgemeine
Wieder@@
Kommunikation
comply
Fin@@
langen
Besuch
Boo@@
sts
Erstens
weit@@
sho@@
Board
Fischerei
ordnung
Fra@@
Leistungen
combat
worth
absolutely
ka@@
cal@@
Luft@@
erinnern
fund
Angesichts
launched
dete
Middle
Grand
well-@@
Barroso
Vergleich
²
Schweiz
El
Ca@@
candidate
ara
Wal@@
Durch@@
menu
anischen
fällt
degree
wären
cy
val@@
economies
criminal
Ist
Mc@@
dro@@
igen
presence
á
arbeitet
umfassende
chts@@
core
politischer
rein@@
arrangements
isation
Stellen
Voraussetzungen
trag@@
Pra@@
Dann
Berichte
heiten
the@@
lichem
African
Richtlinien
earlier
recovery
functions
Cal@@
VER@@
Nun
aktuelle
Arten
announced
schaften
Programm@@
Cam@@
sion@@
Computer
Each
bes
ised
Außen@@
handeln
bitten
raise
tigkeit
NATO
zo@@
Klima@@
zufolge
sam@@
Justiz
losen
Ka@@
Unternehmens@@
tisch
07
oren
oni@@
Gro@@
investments
Na@@
zer
Verpflichtung
played
800
promotion
Spieler
founded
Partei
rich@@
components
multi@@
began
Homepage
mögliche
darstellen
behörden
Aufnahme
larger
08
kin@@
EB@@
ausschuss
lich@@
Comp@@
zw@@
Pan@@
entschieden
Mitteln
OM@@
powerful
failure
installation
record
feature
cia
™
duty
born
spolitik
Regelungen
whom
fonds
endes
export
Ihres
Herstellung
immigration
ide@@
Beschluss
Überprüfung
97
fied
jüngsten
tures
Kindern
Inhalte
propose
verfolgt
acts
nung
sage
learning
Mark@@
urban
....
Veränderungen
territory
automatically
zuständigen
37
Antrag
ahead
bericht
becoming
genehmigt
Pri@@
mente
gabe
wh@@
appear
path
love
swimming
tsch@@
infringement
Most
evening
Übereinkommen
John
fying
gri@@
zentrale
Infrastruktur
gem
lit@@
Idee
sides
evidence
38
Pl@@
Station
gelegen
yourself
ball
Tran@@
properly
ki
k-@@
dliche
Leute
konzentrieren
Karte
President-in-Office
Funktionen
Agency
Mis@@
übrigen
talking
tourist
freuen
Air
Anwendungen
rat@@
ele@@
Kapital@@
fahr@@
syn@@
prior
Chance
speci@@
las@@
benutzt
balanced
elt
Cyprus
Aufbau
Europeans
flexibility
warm
os@@
blo@@
sha@@
consideration
monetary
ei
buildings
Multi@@
format
stan@@
Hungary
Rec@@
cat@@
served
kulturellen
teilweise
Star@@
erfolgen
Madrid
Sommer
schul@@
ships
gek@@
wants
At@@
Costa
Rumänien
shared
französischen
ical
nor@@
sitting
dec@@
ures
Kal@@
agencies
ckt
digen
Volk
continues
Wettbewerbs@@
qui@@
Hause
controls
Paper
Regel
oc@@
tour
Herausforderung
parti@@
ins@@
anlagen
gelangen
internationaler
Voll@@
Treffen
vorgeschlagenen
tungs@@
che@@
Frei@@
chi@@
ved
spielt
Malta
bek@@
Such
work@@
zentrum
Waren
speaking
außer
fixed
Vorsitz
entweder
ley
Vis@@
ado
weis@@
le-@@
daten
net@@
Hersteller
glauben
Tr@@
beteiligt
Plan@@
03
deine
64
applies
staaten
ologie
We@@
defence
kor@@
back@@
Produkt
outcome
Priorität
high-@@
Framework
sa
studies
39
35@@
Wer@@
alisation
ren
selbstverständlich
purchase
wirtschaft
Berücksichtigung
tage
mem@@
к@@
Standard
imp@@
TH@@
Sprachen
permanent
Post@@
Wa@@
Bildungs@@
rü@@
terrace
künftigen
teil@@
votes
War
're
membership
schafts@@
otherwise
gesprochen
Dem@@
She
facilitate
Verbraucher@@
easier
fresh
klare
Zeichen
plan@@
wünschen
geeignet
significantly
closer
CON@@
sicher@@
erfahren
bestätigt
Straße
win
weiterer
42
else
beziehen
Summit
Einfluss
Bus@@
cul@@
respond
starke
comm@@
Haltung
went
lä@@
differences
tabled
auswärtige
screen
welcomes
condition
Belarus
Kan@@
Maßnahme
connected
lichkeiten
erstellt
cars
laid
ec.europa.eu
mutual
Zunächst
exclusive
55
Suche
Warum
Christian
Greek
bildung
summit
ato
43
6-@@
Bri@@
ently
fle@@
mechanism
evaluation
unver@@
tliche
abgeschlossen
DVD
voller
alt
Bild@@
ement
industrie
gave
sted
ländern
motion
min
index
difference
immediate
Swiss
Gleichzeitig
Adresse
isi@@
Irak
ili@@
zuletzt
presidency
Risiken
exercise
cra@@
jene
führ@@
lands
Hin@@
ory
hoffen
PL
richten
Pakistan
entsprechen
Augen
0-@@
advanced
Autom@@
Abkommens
glich
Ob@@
unabhängig
wirken
Nicht
binding
vision
unbe@@
inen
erwähnt
white
dem@@
figures
dealing
gefördert
definition
entstehen
fore@@
UND
inside
tlich
Bedenken
Grundsatz
follows
Vorbereitung
election
spirit
mark@@
allowing
TS
Grundsätze
Achtung
Just
D-@@
85
ki@@
pra@@
ath
akzeptieren
Leit@@
photo
hinweisen
ET
cing
Status
thousands
ame
Industri@@
programs
wider
Wann
hu@@
Arbeitslosigkeit
ay
dlich
Report
won
SCH@@
acht
Finanzen
exp@@
precisely
grounds
items
wrong
threat
Investment
ig
Lesung
actual
initial
uss
waters
fälle
informieren
Rom@@
las
Mau@@
és
Zoll@@
Teile
spezifischen
Frankfurt
Communication
pas@@
Met@@
exactly
festgestellt
jährlich
combined
Super@@
prevention
court
ture
Familien
angeboten
Währung
freue
anderes
introduce
geleistet
Kontroll@@
cap@@
dagegen
ole
0er
tradition
testen
ue
Irish
Luxemburg
deten
pul@@
lungen
electricity
gefordert
peaceful
Trans@@
Anpassung
Besch@@
oo@@
asylum
gruppen
achieving
Under
Fa@@
steigen
zen@@
formal
nisse
speech
pleasant
profitieren
Ungarn
Aktionen
completed
door
wal@@
mobility
sun@@
Sport
warten
Lebensmittel@@
ction
Mitte
führenden
spending
100@@
м@@
session
Familien@@
guarantees
dimension
MP@@
punkt
Empfehlung
Sorge
kes
spend
VI@@
Croatia
wahr@@
numbers
kom@@
Lei@@
inform
ier
End@@
Finland
erheblich
J
ming
fr@@
Lie@@
Kom@@
statements
rau@@
welcher
Pat@@
Meeres@@
changing
unterschiedliche
verk@@
buy
seek
funktioniert
stehenden
AP@@
besseren
ingen
06
Dimension
Menge
co-operation
Other
600
tional
proceedings
nte
achten
betrachtet
Syn@@
happen
shop
--
noted
gestalten
save
einiger
umwelt@@
ambitious
Gal@@
Film
05
Fran@@
Stimme
fte
Mindest@@
tasks
ini@@
ch-@@
individuals
ausdrücklich
entwicklung
Gel@@
boo@@
vari@@
nation
goals
dank
operational
ständigen
199@@
standing
de-@@
dan
planned
benutzen
adequate
wonderful
reasonable
represented
nächste
umfassenden
ön@@
san@@
Once
Rad@@
Betrieb
approval
sale
freiheit
halt
seem
ED
rasch
betreffen
richtigen
ack
klicken
telephone
tom@@
Agentur
considers
1991
Paket
gewinnen
Then
ice
appears
Sur@@
possibilities
customs
factors
advice
campaign
Kunst
spent
mas@@
olo@@
stone
tten
ker@@
metres
registered
Zeiten
instance
Zahlungs@@
ited
fellow
Modell
Lan@@
gegenwärtigen
ktion
sting
Mitgliedern
miteinander
delegation
verstärkt
OP@@
Pap@@
cards
recht@@
Mas@@
ark@@
beds
relate
camera
3,@@
Webseite
Best
Kraft@@
Cap@@
Bulgarien
ola
größeren
istische
wettbewerbs@@
sionen
stoff@@
hab@@
Medi@@
fs
feld
Förder@@
Uni@@
Regional
wel@@
•
Wirkung
Strategien
quote
kur@@
7-@@
ching
register
Gesetz
ai@@
ko
Forderung
27@@
continuing
Vice-President
technological
tests
thinking
greifen
Formen
Geh@@
mittel@@
euch
überprüfen
lag
firm
nation@@
air@@
ingly
werte
Großbritannien
dienst
operate
Pressemitteilung
Wissen
Eigen@@
Bil@@
Rede
betont
intervention
Indien
liz@@
deliver
institution
rapid
season
Internationalen
nachhaltigen
mitteln
species
speziell
MO@@
Video
bas@@
entirely
Because
Pas@@
winter
dé@@
Dan@@
iel@@
Name
jederzeit
Representative
Globalisierung
benötigt
mechanisms
monitor
erklären
suggest
failed
abo@@
Dra@@
ological
anten
com
usw
schlägt
sicherlich
tn@@
client
Verringerung
Jetzt
requested
Bedürfnisse
Maße
Gemeinschaft@@
isen
post
chtet
extended
Schi@@
verbundenen
dangerous
yst@@
Test@@
Home
Sie@@
ella
geln
strongly
stadt
hour
models
parliamentary
ID
ona
science
Michael
O-@@
consistent
shops
urgent
eit@@
erhält
reception
pla@@
sämtliche
stimme
addressed
erstellen
Titel
availability
н@@
besuchen
ency
durchaus
select
His
bilateral
Bürger@@
Kl@@
Tätigkeiten
Char@@
minim@@
äl@@
spor@@
one-@@
advance
functioning
Ara@@
leistungs@@
PRO@@
Investitions@@
Verhältnis
reicht
Hei@@
informiert
sel
Hol@@
lia
kitchen
ti
Zweifel
41
Peter
atory
Hor@@
perspective
detail
Bes@@
Liefer@@
genuine
AN
Universität
arbeit@@
у@@
spiel@@
tour@@
tigt
hingewiesen
behörde
aufgefordert
wesen
applicable
mental
haus
ica
Island
off@@
OS@@
lig@@
Great
positiv
attractive
obtain
character
sagt
Unterkategorien
Single
bit@@
Austrian
hear
Pu@@
Abschließend
vers
article
Innen@@
Apartments
indi@@
hauptsächlich
limits
spacious
Dennoch
fäl@@
remember
ye
vorliegenden
Str@@
Europäer
Problemen
VAT
deficit
einsetzen
sub-categories
alo@@
houses
glichen
Rooms
kal@@
drawn
gewährt
welt
Festlegung
pre-@@
politics
erleichtern
hel@@
Palestinian
solcher
tem@@
becomes
entitled
charged
seriously
host
vorhanden
participants
combination
esi@@
zz@@
eng
betonen
zy@@
isierung
covers
elegant
EV@@
Teil@@
lieren
taxation
Nicht@@
93
enables
gs@@
britischen
Städte
ton@@
existence
experienced
Dom@@
Stellung
gegenwärtig
stattfinden
cr@@
Korea
gezogen
SS@@
Denmark
195@@
Drittländern
angezeigt
flow
ning
spezifische
Elemente
yo@@
Deutsche
üsse
aspect
claims
typical
Pf@@
voice
Eing@@
Forderungen
independence
dungen
CS@@
identified
wenigen
ischem
licherweise
Betriebs@@
tere
tungen
stoffen
bor@@
läuft
unless
gain
advertising
iste
sicht@@
werke
eiten
Ir@@
ll
schwierig
kers
EU-Mitgliedstaaten
database
cker
wn
picture
wood
erhöht
disease
cho@@
Both
att@@
Kredit@@
erter
Meter
television
04
Erklärungen
issen
dürfte
si
manage
shower
einander
plat@@
nissen
devices
Effizienz
bio@@
Reform@@
d.
ergeben
Bedarf
mod@@
zwei@@
aci@@
LO@@
released
zählen
communities
renewable
wollte
qualified
rail
corporate
erleben
leader
prepare
sensitive
railway
launch
haft
High@@
Institute
sichern
Anlagen
Protection
dur@@
contrary
translation
an-@@
opposition
starken
Unternehmens
elected
machines
Risiko
cking
Schlüssel@@
reliable
ands
ett@@
bringing
Leistung
courses
Vielzahl
Erhöhung
erenden
Hälfte
diversity
tier@@
geschützt
contain
ther
ational
Fälle
nicht@@
ched
Niveau
display
spezi@@
update
hervor@@
fun
täglich
flu@@
26@@
Liberalisierung
Fortschritt
Unfortunately
geprüft
contacts
ish@@
hau@@
Geld@@
Food
inv@@
einrichtungen
Bestandteil
told
refugees
Spa
welcomed
ita
Öl@@
estate
Air@@
deutsche
contracts
zuständige
vehicle
beg@@
fuel
Installation
eingehen
Aspekt
dennoch
stein
Leider
IV
groß@@
district
46
pfen
gegründet
conduct
Struktur@@
Global
sches
cuisine
ishing
Mel@@
books
fraud
frei@@
ausreichend
47
sätze
Stu@@
explo@@
Studie
ites
Zei@@
Erzeugnisse
betroffen
steel
obligation
ail@@
carefully
Common
zuständig
mag@@
finanziert
Abgeordnete
asi@@
fel@@
attempt
equality
erscheint
wagen
fire
8-@@
Ziel@@
ante
übernachten
ely
Dollar
calling
Normen
geschrieben
requests
44
ziert
itäts@@
kt@@
zugunsten
geschehen
anc@@
Open
accounts
ath@@
bt
platform
verkehrs
Kno@@
resulting
determined
Schwerpunkt
Berufs@@
Ideen
heraus@@
übertragen
demokratische
fication
band
migration
Werk@@
Street
Sam@@
Besucher
aufmerksam
PDF
Teilnahme
Druck@@
names
improvements
resort
Generation
diskutieren
erfordert
tte
wunder@@
п@@
exc@@
Aktionsplan
sicherstellen
Mer@@
coffee
wasser@@
hot
BR@@
EX@@
IC
Latin
Garten
Company
analy@@
IA
Hal@@
Mrd
storage
gene
pension
regelmäßig
port@@
IK@@
described
asse
Cooperation
God
confirmed
Maria
wishes
felt
impossible
reich@@
Gründe
relativ
wichtigste
weg@@
Übernahme
testing
Unabhängigkeit
amen
brand
biggest
ut
kaufen
tin
Jahrhunderts
wers
strategies
substances
cour@@
geltenden
Ausland
legung
vier@@
preparation
Diskriminierung
water@@
gers
responsibilities
LE
mail
compensation
proposes
south
tal
Flexibilität
sum
humanitäre
Ski@@
junge
grant
England
intention
restructuring
woh@@
extend
Golf
Vielen
ы@@
Klimawandel
Seine
zuvor
ambi@@
ander@@
dedicated
temporary
National@@
letter
Finnland
Click
Kommissions@@
print
industries
dat@@
chter
ware
bul@@
92
miss@@
Aufgrund
gef@@
White
dre@@
temp@@
uner@@
lo
truly
überall
st-@@
Private
down@@
verabschiedet
feststellen
lige
geo@@
zufrieden
weist
arten
medium-sized
nden
Teilnehmer
Employment
Menschenrechts@@
situations
globale
art@@
approximately
lic
hergestellt
kept
dor@@
trip
forget
restrictions
ligen
Pen@@
greatest
etz@@
Gast@@
background
loc@@
stru@@
accessible
sobald
primary
w-@@
für@@
gemein@@
Links
moving
Funds
Welche
Mehr
LI@@
Ministry
jungen
Area
garantiert
himself
orders
Bis
B-@@
danach
verlassen
sofern
Online
Data
ub@@
Sanktionen
registration
bezeichnet
Special
ically
Vil@@
outstanding
My@@
contained
Worte
Süd@@
ences
ery
ón
mandate
zeichen
haltung
kosten@@
Fähigkeit
Texte
passed
Another
ausschusses
Sar@@
cke
4,@@
Dutch
architecture
maintenance
sprache
anyone
sam
istischen
reisen
Dienstleistungs@@
Off@@
identify
Auto
seven
hon@@
xes
Zivilgesellschaft
sprachen
Rome
myself
Laufe
Lam@@
Fol@@
hands
ward
Hauses
involving
tos
Fort@@
river
pal@@
let@@
Dor@@
helping
Zahlen
Joint
issued
produktion
David
Sehr
Dienst
Turkish
firms
Sach@@
Reaktion
fill
aren
Foundation
Vereinbarungen
räume
wissenschaftlichen
Vienna
Ci@@
Wirtschaft@@
mati@@
mittels
Reis@@
Del@@
Last
nten
Monat
gelungen
affect
aro@@
guide
nötig
compatible
tä@@
seeking
SA
Firstly
affairs
Mobilität
convinced
Education
en-
länger
medium
Finanzierungs@@
Santa
assist
Austausch
stei@@
Kroatien
ate@@
ai
Tu@@
einzigen
Komfort
Kirche
Breakfast
absolute
zung
chosen
web@@
vorlegen
Teilen
thereby
Mann
ring
sten@@
lets
Nevertheless
vollständige
submit
Geb@@
def@@
Ph@@
Vorteil
reservation
effectiveness
Tour
club
religious
UM@@
tic@@
weapons
desire
manufacturing
happened
arms
ktionen
Ja
Prinzip
dad
factor
Q
absolut
regeln
Support
Schluss
spezielle
hom@@
chter@@
transition
Technik
Lehr@@
Klicken
ée
üh@@
best@@
UT@@
stoff
positiven
Voraussetzung
Bru@@
signal
PT
unacceptable
10.@@
oh@@
physical
notice
exhibition
ATION
groß
enzen
forced
ze@@
Every
Methode
satellite
dritten
Größe
Unterschiede
Patienten
ancient
disposal
ual
zusätzlich
Zi@@
künftig
Due
association
beginnt
advantages
judicial
Can@@
contributions
Steuern
Media
keinerlei
rent
gehalten
gelöst
ania
hof
italienischen
Gericht
Jeder
ey
SE
aircraft
es-@@
Rahmen@@
nearly
ongoing
arrival
holding
successfully
Control
maritime
Bank@@
weltweiten
emergency
bezug
vit@@
AU@@
Haup@@
tenen
recommend
Abend
System@@
prozesses
bear
Rechts
Men@@
seh@@
markt@@
enhance
Indi@@
daraus
Pe@@
führer
abkommen
alter
route
sla@@
Niederlande
Dänemark
Mac@@
Mehr@@
claim
Nieder@@
beinhaltet
gutes
BER@@
multi-@@
Terrasse
hil@@
Worten
charges
Verträge
fung
EADS
keeping
Thus
eight
86
mus@@
seien
intensive
agency
micro@@
großes
Prodi
Euro-@@
digung
surface
sanctions
wa
wil@@
museum
bers
cy@@
delivered
einerseits
buffet
packages
ari
Following
wall
dynamic
relax
liebe
fear
respective
Netz
mut@@
schlagen
unternommen
е
pollution
Absicht
marks
persönlich
schönen
linie
č@@
fen@@
Hinweis
beaches
enormous
wodurch
ished
Struktur
declaration
zugleich
schools
Nachfolgend
gebaut
brings
looks
befassen
ersch@@
manufacturers
unds
alle@@
Netz@@
ys@@
my@@
zing
ining
Beschreibung
Mittelpunkt
meters
unable
mehr@@
forum
burden
sell
expression
delay
Moment
sieben
Brenn@@
weight
Ã
ports
Schengen
TER@@
pointed
booking
parallel
erhebliche
texts
fal@@
OT@@
cas@@
angesprochen
Ereignisse
besitzt
chs@@
fach@@
250
Fil@@
Trotz
ENT@@
ena
technik
lag@@
Nachdem
CO2
Verständnis
involvement
Projekten
Atom@@
reagieren
Politiker
putting
Zypern
tene
umzusetzen
eti@@
MEMO
wind
11.@@
fern
garantieren
remaining
black
werk@@
bildet
presentation
Entwicklungsländern
Führung
neither
Nutz@@
qualität
eten
Open@@
extension
Einbeziehung
.000
Strukturfonds
amounts
welchen
Nutzer
Fuß
flight
kürzlich
lö@@
sort
category
ables
Sinn
Finance
rechten
Ei@@
ehemaligen
Tal@@
Far@@
heit@@
Ul@@
surrounding
talks
lebens@@
remove
betreffend
e.@@
Yet
Motor@@
smaller
tly
installed
examples
pictures
empfehlen
45@@
inner@@
Hamburg
AK@@
Safety
ises
Handel@@
1989
organization
ile
Vol@@
12.@@
Note
offensichtlich
Mad@@
eigen@@
Wissenschaft
meaning
Sehenswürdigkeiten
genen
communications
yang
middle
recognised
mag
Martin
Beim
ee
i.e.
emphasis
aries
coast
tives
liability
kraft
wesentliche
zimmer
conclude
einfache
Buch@@
ce-@@
nennen
reply
Nachfrage
entered
centres
Verbesserungen
Charter
asking
piece
Begriff
ous@@
angemessen
audi@@
echte
Constitution
Rel@@
Zielen
aktive
deep
comment
capable
laufenden
Bau
valid
Wil@@
betrachten
Kritik
Structural
Sta@@
ths
decision-making
ministers
interpre@@
isiert
ISO
erende
consists
Tradition
Tel@@
barer
Grundrechte
künftige
squ@@
kar@@
relatively
spread
verloren
ss
TE
mass
fall@@
angemessene
Nacht
driving
i-@@
imports
Technology
primarily
examine
alized
massive
break
sup@@
appeal
Antworten
transaction
soweit
Decision
Tiere
Manager
cel@@
fur@@
atives
и
Jahres@@
guaranteed
EW@@
zieht
Hoffnung
kel@@
Anliegen
drugs
han@@
wirtschaftlicher
Those
anbieten
ige
Democrats
ater
fic@@
reflect
Inseln
ks@@
Download
to-@@
zusätzlichen
Stil
wirksam
exports
verringern
langfristige
button
nearby
produkte
‑
Pr@@
sum@@
Very
nahmen
cc@@
stabil@@
covering
Partnern
ata
stellungen
MS
competence
consensus
ligh@@
Mess@@
lig
Genehmigung
relaxing
expensive
controlled
Guest
unfortunately
diseases
Geschäftsordnung
konkreten
zunehmend
Auftrag
eit
Dadurch
expertise
ty@@
anerkannt
enforcement
dge
ord
weiteres
getragen
engine
alist
opinions
wir@@
erh@@
sonst
ergriffen
Methoden
Arbeitsplätzen
Can
rou@@
offenen
lar
Van
pping
fällen
ard@@
Internal
Kin@@
fort
B.
rechtliche
teilnehmen
Michel
ez
Botschaft
Aid
Casino
alization
vorschlagen
comple@@
onto
zt
speziellen
Gegensatz
Further
unit
Umständen
Festival
shi@@
Je@@
preise
haften
causes
color
unmittelbar
notes
spanischen
kam@@
ams
Risiko@@
x-@@
ös@@
feed
dynam@@
attack
previously
Any
institutionellen
ot
Zentral@@
hoher
representative
zurückzu@@
bars
Doppel@@
höhere
atic
paragraph
trifft
Friedens@@
window
Sektoren
zählt
Bereitstellung
Despite
Canada
treated
fit
equi@@
ía
Vorschlägen
attacks
andererseits
Spezi@@
bereitgestellt
awareness
F-@@
Is@@
bahn
dungs@@
trau@@
funktion@@
Option
saw
vertre@@
regelung
story
clo@@
pun@@
sun
int
Anlage
bestimmter
Aussicht
Kosten@@
unterstütze
Sor@@
taxes
Net@@
EA
ink
totally
forest
lie
Flu@@
interface
investors
zugänglich
decades
Nu@@
conditioning
Programmen
ine@@
gebiete
zentralen
assets
unden
eth@@
bereiche
Landwirte
rep@@
kul@@
vo
tens
Bush
holidays
liberalisation
kostenlos
Regional@@
ane
stations
hervor
cm
patients
Player
deli@@
Fernseh@@
ik@@
imposed
ester
attractions
Kr@@
Urteil
Volks@@
Anbieter
leadership
anz
mus
bezieht
sper@@
competent
officials
öl@@
Verhandlungs@@
beauty
Veranstaltungen
Definition
Dokumente
Ham@@
Reise
invited
Start
tre
sole
leads
combating
verstärken
bekannten
mobil@@
stal@@
Pla@@
Sha@@
programms
schneller
title
Europol
z-@@
Minister@@
directives
Agrarpolitik
Kontrollen
Ost@@
square
acting
Drogen@@
komplett
identity
Meiner
omm@@
ian
seitens
ç@@
dlichen
chan@@
entwurf
Han@@
radio
gent@@
yesterday
PL@@
device
passengers
acceptable
Sprach@@
breite
Swedish
luxury
öh@@
stehende
Grenze
führende
liefern
tritt
replace
Dem
write
·
tried
.de
Hilfs@@
traditionellen
Märkten
Kompromiss
Realität
ener
angeht
Sitz
abhängig
enter@@
cru@@
recommendation
Partnership
tackle
requirement
latter
memory
einzelne
determine
Leistungs@@
haf@@
iten
focused
schä@@
wichtiges
banking
fand
Are
Lauf@@
Entwicklungsländer
kommen@@
gte
install
Diskussionen
Ordnung
DS@@
los@@
eröffnet
pos@@
para
tischer
head@@
Obama
older
aufzunehmen
guter
beachten
Regierungs@@
Fr@@
posi@@
1000
artists
Rau@@
Aussch@@
finding
versorgung
dig
Beratung
bewegen
m2
Paul
discover
Allgemeinen
gegen@@
Out@@
wealth
FR@@
Fähigkeiten
Firmen
Ebenso
rufen
praktisch
AV@@
Where
zahl@@
Lake
sat@@
Männer
constantly
Haus@@
Gott
ble@@
block
wiederum
Strukturen
cer@@
except
з@@
lik@@
Over
Eindruck
stocks
optimal
serves
chain
leit@@
zeichnet
Fotos
hum@@
Pres@@
beschäftigt
expectations
indicated
Two
ret@@
church
politisch
Willen
schließt
main@@
Erde
Harmonisierung
Nice
ziele
itz@@
rightly
Beiträge
esen
Hauptstadt
Bon@@
chern
residence
spre@@
ov@@
sold
Beihilfe
conc@@
Licht
Ausbau
nah@@
sli@@
Presse@@
grundlegenden
geschieht
Prin@@
wards
ye@@
involve
acy
perfectly
etten
Ren@@
stellten
richtlinie
damals
einheitlichen
Auto@@
low-@@
Eisenbahn@@
nieder@@
Weiter@@
Material
largely
wen@@
statistics
Asyl@@
coun@@
cies
hafte
elled
Arbeitsmarkt
mäßig
Tages@@
Fisheries
ater@@
dige
schöne
remind
chn@@
ré@@
Day
bath
Gemeinsame
shares
carbon
manchmal
gewal@@
zei@@
Inn
51
sign@@
merely
beträgt
Vorgehen
ering
früher
obtained
but@@
obviously
essen@@
acquisition
Charakter
marked
bert
dos
abroad
sem@@
servi@@
Protocol
verlangen
Verwirklichung
north
reden
persönliche
gesellschaft
atoren
tag
Unterkunft
Verbot
and-@@
e.g.
Musik@@
tierte
gewählt
fri@@
explain
gens
Fax
race
preis
post-@@
Cro@@
Deputy
meat
freundliche
kulturelle
gesellschaften
inzwischen
Verkauf
App@@
westlichen
cent
Rules
finde
geöffnet
einverstanden
Card
Schl@@
hren
mountains
V-@@
Royal
physi@@
fruit
ständige
Verbreitung
amongst
ym@@
160
nunmehr
Alliance
fühlen
Sho@@
52
belie@@
Mission
Gesetzgebung
cri@@
ined
Studio
fy
Gegenteil
increases
recommended
obvious
Krankheiten
kleiner
fighting
übernommen
Palace
anda
weisung
willing
mb@@
trä@@
Polish
Sel@@
Beispiele
vorzulegen
rup@@
q
Altstadt
ize
gets
updated
ktions@@
contents
Beschlüsse
ñ@@
any@@
allgemein
Link
cro@@
unto
faced
inf@@
The@@
Liber@@
row
sta
mar
CR@@
Mikro@@
Grunde
entwickelten
leiden
Ausnahme
Experten
Holz@@
d.h.
identi@@
handling
spo@@
landscape
Dat@@
drawing
700
honourable
tain
les@@
dealt
Pact
Beh@@
barriers
waiting
Sü@@
dent
turned
Militär@@
xi@@
Angebote
Verhalten
Gespräche
cycle
tho@@
durchzuführen
Entschließungsantrag
rely
natürlichen
Kir@@
someone
gol@@
67
Projekt@@
h.
foot
äch@@
tik
Amerika
protecting
store
Mitgliedschaft
Stand@@
ama
gewisse
Gründung
spek@@
define
karte
Wegen
furnished
grün@@
vorgesehenen
resolved
ahn@@
Resort
resolve
lake
convenient
Führ@@
heits@@
schung
maintained
Bay
120
sab@@
fördert
touch
begonnen
Vom
Gesetze
Thanks
gemeinschaftlichen
licht
Mand@@
systemen
Faktoren
colleague
southern
Staatssekretär
deb@@
Fisch@@
collective
Bewegung
Spe@@
object
constructive
Sonnen@@
Mari@@
experiences
gegangen
Schäden
Slovenia
stimmt
vorgenommen
trafficking
Modernisierung
inflation
DA@@
menschlichen
bestand
tou@@
enge
setz@@
tis
president
bereit@@
UN-@@
leiten
R-@@
Winter@@
hierzu
Einstellung
begann
eingeleitet
visa
actively
nit@@
Vorschlags
diskutiert
ül@@
і@@
vielmehr
kurzem
Kombination
BO@@
volume
recognise
welfare
ony
rapidly
graph@@
dam@@
fähig
aussch@@
bestehende
Time
run@@
strategischen
surrounded
appointed
lang@@
nations
5,@@
Übergangs@@
liegenden
verlieren
ecken
glass
dru@@
Tit@@
extreme
danger
schemes
whilst
Aktion
listen
ked
producing
viel@@
istic
Kam@@
Hy@@
Mak@@
wirksame
urge
Erwartungen
vous
named
Zustand
digt
abl@@
mern
Verfügbarkeit
by@@
Details
wait
ced
Oper@@
Camp@@
Baltic
а
Fraktionen
Ohne
fes@@
've
basiert
Verbindungen
youth
ertes
TO
Farb@@
keiner
ick
Beratungen
ken@@
Tourismus
noise
sou@@
lar@@
89
photos
Wien
CC@@
Mobile
acht@@
verlangt
vulnerable
sy@@
exists
lauf@@
stream
shape
equ@@
wür@@
Vertrags@@
Gemeinschaften
liert
healthy
heavy
PHP
Ki@@
disaster
akzeptiert
helped
discussing
struktur@@
ober@@
helps
locations
vertrau@@
suffering
Lithuania
Comm@@
Schule
popul@@
ay@@
0.000
ideale
USS
dic@@
Sat@@
isch-@@
Kenn@@
behandeln
lied
encouraging
zus@@
blu@@
Ges@@
Before
berühmten
pleasure
Located
uring
amerikanische
multiple
assess
passenger
ol
Anschluss
88
conducted
Politiken
providers
figure
dienst@@
settlement
units
justified
grundlegende
ny
Gewährleistung
Cl@@
ê@@
Monetary
mode
Insbesondere
Presse
suite
profit
beteiligen
set@@
Buch
bre
sharing
all-@@
Dublin
Wider@@
Gesellschaften
Montenegro
gone
dens
destination
aufen
diverse
Ster@@
inclusion
fassen
Shi@@
drei@@
Parti@@
vorzu@@
engineering
71
S.@@
l-@@
kop@@
Ther@@
privacy
Nahen
Slovakia
zustellen
farm
Veranstaltung
anische
beschränkt
Gre@@
Winter
Landschaft
Pic@@
Pro
erhältlich
articles
SM@@
EH@@
Act
Zahlungen
strength
excessive
kontrolle
68
exceptional
vollkommen
entscheidend
spring
Spar@@
unterzeichnet
Portuguese
valuable
denden
zeug@@
contemporary
aum
Datenschutz@@
oral
ads
zig
Netzwerk
Europ@@
kinds
enger
decken
preis@@
highlight
gebieten
ros
mil@@
dest@@
lokale
derartige
punkte
quick
Resolution
gestellten
spaces
ric
corruption
sky
Ke@@
Darlehen
DA
erin
tierten
schwierigen
66
intensi@@
Ide@@
Versuch
Fern@@
dene
leistungen
ungsverfahren
Pil@@
UNION
ere@@
itäten
estimated
Putin
Standard@@
ppen
eins
NL
Strom@@
Ministerin
Serie
entgegen@@
kat@@
pose
Beach
ffen
PH@@
Square
elektronischen
versions
Mus@@
subsidies
declared
pped
Kauf@@
Telefon
Fri@@
Waffen
copy
browser
Amt
Neue
hängt
eds
eff@@
regularly
zusammenarbeiten
websites
ress
straße
runs
EIN@@
solve
Gri@@
bon@@
Kyoto
näher
werfen
Hon@@
dritte
Nov@@
transactions
höchste
Wander@@
output
keit@@
Kommunikations@@
Sec@@
Untersuchungen
COM
ausgesetzt
projekte
Ruhe
WTO-@@
gestern
sustainability
esses
eck
Wo@@
default
moved
Rat@@
pour
lle
bom@@
PP@@
herr@@
ete
herzlich
welt@@
constitute
stronger
Slowakei
Veröffentlichung
prove
Kategorie
94
früheren
proved
Britain
Raum@@
length
Vizepräsident
anhand
undertaken
duties
ush@@
owned
í
reserve
Westen
derung
two-@@
56
onn@@
wn@@
Farben
Einkaufs@@
pursue
spa
ping
neuesten
Letz@@
ial
occasion
91
2007-2013
bern
Straßen@@
tobacco
Angriff
Binnenmarktes
denk@@
u.a.
Datenbank
George
AT
soft
CH
Gestaltung
tra
spot
Ratspräsident
höher
stil@@
Tar@@
a.@@
din@@
bekämpfen
zustimmen
Given
б@@
gal@@
speakers
kraft@@
categories
transpor@@
sters
fläche
G-@@
ст@@
reported
menten
Culture
staat
GR@@
lay
fran@@
Essen
spiel
Fein@@
IB@@
dia
Format
Jan@@
Klimaanlage
Hi@@
accompanied
chemical
heutige
offen@@
Hau@@
Süden
opposite
Beteiligten
Law
Krisen@@
Marktes
vertrag
9-@@
politi@@
niveau
enth@@
vorgeschlagene
ong
error
profile
maintaining
72
politicians
ück@@
Planung
weite
General@@
ter-@@
tern@@
equally
DIE
Pool
taste
golf
Ram@@
sorgt
tical
ł@@
Gefühl
Alternative
nochmals
Chancen
proof
western
MA@@
pil@@
Versch@@
durchführen
Bus
origin@@
Charta
hilft
schafft
bing
erinnert
voran@@
toren
beteiligten
profession@@
kti@@
Raums
53
rejected
träge
organizations
OLAF
Schwer@@
fts
Zusatz@@
ign@@
Maß
genauso
Menschen@@
Network
tari@@
Verbrechen
uting
feeling
pel@@
millions
ney
bun@@
conf@@
Copenhagen
Gl@@
aller@@
Wirtschaftswachstum
tioning
opp@@
stieg
verschiedener
fail
Praktiken
Post
Englisch
ust
Director
Schaden
Lord
depends
universal
terrorist
Japanese
tiv
constant
ush
62
din
Their
handel
sichere
Consumer
ech@@
Digital
Organe
cam@@
treaty
Liebe
gesp@@
höheren
laut
olog@@
festgelegten
Stre@@
Zimmern
determination
Second
Stunde
dende
schlag
beruht
vast
deckt
mas
steller
Verfassungs@@
Tod
höchsten
Eigenschaften
Termin@@
Brazil
creative
\
GB
Kooperation
inger
non
verkehrs@@
motor
actors
attitude
Balkans
flows
betra@@
Stoffe
echten
Freunde
enhanced
courts
exclusively
Gener@@
Partner@@
On@@
wissenschaftliche
6,@@
RO
Emissionen
el-@@
Kurz@@
Kop@@
musi@@
Tatsächlich
hinter@@
zieren
sozi@@
vereinbar
dates
TO@@
Lebensmittel
strict
setzung
offices
Staat@@
karten
author
leaving
sichergestellt
CAP
Fac@@
system@@
Alter
financed
Roman
Blu@@
bedroom
ursprünglichen
heraus
Völker
JavaScript
CI@@
leb@@
dol@@
USD
Geist
satisfactory
peoples
th-@@
ativ
spe@@
Stability
Foto@@
historische
ge-@@
Lebens
disc@@
Lau@@
Such@@
summ@@
Dialogs
Stadtzentrum
struktur
schön
skin
continent
eding
Handeln
sexual
conflicts
Spiele
quarter
intellectual
Gästen
hö@@
Betrag
weitgehend
break@@
brechen
hier@@
tigte
aktiven
Via
linien
respon@@
teams
reifen
UC@@
aux
characteristics
Erholung
81
aged
Zwischen@@
organisiert
Waren@@
sur
bedeuten
EM
Übereinstimmung
involves
See@@
Migration
Serbia
druck
entscheidender
suppliers
Tom@@
yes
esch@@
Zwei@@
ards
Handels
Körper
Tru@@
Tim@@
Video@@
zentr@@
automatic
heritage
Estonia
Erfüllung
tigten
cket
seite
Twitter
zunehmen
ele
Rou@@
ain
.org
roads
ritt
objects
Bei@@
Umweltschutz
Küste
Ladies
schätzen
knows
isse
School
Enjoy
tours
read@@
nahezu
seeing
fi
bung
Munich
gespielt
Northern
hit
absence
aging
chinesischen
whatever
Umfeld
grenzen
erweitert
Besorgnis
wirkt
Pet@@
begrenzt
bemüht
konferenz
Energien
vessels
toler@@
Norway
preparing
Chamber
ills
ct
notified
graphic
impose
tau@@
Flüchtlinge
forthcoming
AF@@
Zuständigkeit
collaboration
Architektur
stor@@
Norden
Den@@
arch@@
Freude
eil
Problems
Kunde
bemühen
applying
connections
Vereinfachung
Robert
Beseitigung
Executive
messen
Rural
Ombudsman
mes@@
bislang
Lag@@
58
spann@@
Vision
Mein
Sand@@
realis@@
tin@@
dans
Institution
â@@
ethnic
fein@@
Punkten
verändert
elling
Slowenien
notwendige
ausgerichtet
creates
supplies
productive
tur
verursacht
erscheinen
Beweis
Des
bauen
führten
iner
Verteidigung
emphasise
erer
soci@@
u.
dir
fähigen
Klima
Pflicht
Zwecke
weshalb
procurement
notably
removed
Mexico
schen@@
breiten
Ob
54
Suite
Kli@@
dert
voluntary
Websites
Wachstums@@
faster
entschlossen
ni
Hohen
frag@@
einbezogen
q@@
Industry
Überzeugung
unverzüglich
Minutes
Ant@@
Gerichte
Karten
stände
р@@
Einwanderung
formen
alisierten
82
Optionen
ky
igkeit
EP
boost
obstacles
CE
emerging
Forsch@@
Vielleicht
adopting
annehmen
materi@@
domin@@
AP
Use
trees
viol@@
serviert
milk
ausgeschlossen
Werbung
Anstieg
Schulen
demonstrate
Nummer
organisationen
or-@@
Che@@
spon@@
get@@
entscheidende
ello
Schiffe
demo@@
Konflikt
initi@@
Werk
griffen
serv@@
Zugriff
Ausarbeitung
entstanden
Ausführungen
Materialien
allocated
EEC
trotzdem
te-@@
Budget
regret
lasting
yers
Film@@
grow
hör@@
Litauen
west
Anfragen
tiven
Reise@@
aufnehmen
opposed
Wohlstand
ando
ented
happens
isti@@
GN@@
besitzen
Gedanken
tut
gangs
Christ@@
Studien
anlage
87
eigenes
utz@@
WC
Lim@@
schnelle
entlang
ri
Gleich@@
berechtigt
Internet-@@
behalten
Express
Eu@@
uri@@
mäch@@
River
37@@
manager
perform
emen
fies
Mul@@
Wird
Plattform
Abfall@@
debates
respected
direkten
personnel
Find
parents
truth
niemand
Fle@@
appe@@
EG-@@
Preisen
öffnen
wär@@
mö@@
dence
bequem
Geräte
subsidiarity
Erhaltung
L-@@
watch
Cli@@
61
containing
sle@@
Good
oni
funktionieren
Regime
Zentralbank
ultimately
Element
intend
ries
Kollege
widely
acquis
streets
coordinated
cle@@
atische
boat
gh
bedeut@@
termin@@
savings
Bahnhof
HO@@
erneu@@
ernst
enswert
BSE
facts
Gebrauch
Kind
alities
entlich
temperature
presents
erlauben
Alp@@
Dauer
oper@@
precise
zahlung
furniture
russischen
Boden
cheap
Gleichgewicht
DR@@
effiziente
radi@@
elektronische
kol@@
Chr@@
ú@@
Test
ash
sern
discovered
verhindert
fulfil
Kriminalität
brief
top@@
dinner
Don@@
ops
musste
Instead
bestimmungen
Ab
plays
Aufsichts@@
charming
Year
joined
eingehalten
Alb@@
Rule
jemand
AC
master
sozialer
ham@@
63
ziemlich
maxim@@
Š@@
dischen
fee
Geschäft@@
Städten
ala
leistung
reserves
Sudan
ehen
produziert
stakeholders
Wirklichkeit
Unterschied
Log@@
east
cle
PO@@
nachdrücklich
eil@@
import
Mobil@@
kamen
lierte
appreciate
gg@@
Prozesses
interessiert
Männern
IM
ace
äußern
satisfaction
illegalen
klaren
Book
Take
73
77
scht
Wahrheit
sicht
illustr@@
walls
Gegenstand
cross
confirm
g-@@
isieren
treat
Dru@@
werten
50@@
Gold
cable
fan@@
Newsletter
awarded
grundsätzlich
kämpfen
Kontakt@@
bedrooms
kli@@
zäh@@
organized
lierten
förder@@
SU@@
separ@@
Latvia
asser@@
van@@
journey
tum
Training
Fischer
Wohl@@
tag@@
beigetragen
drücken
Belgian
erfolgreiche
Stein@@
Garantie
divided
naturally
interpretation
Formular
definiert
Rotary
educational
with@@
QU@@
Photo@@
pieces
Frist
atischen
realistic
zulassen
eastern
ierungen
dishes
signs
sektors
depending
discharge
willkommen
Vertretern
.00
Bemerkungen
Poker
author@@
Umgang
Kommissionsmitglied
bound
Gesch@@
tested
oriented
humanitären
gent
verleihen
loans
3D
ag
Fuß@@
overcome
targeted
mentation
weiten
schl@@
Jugend@@
ßt
Est@@
owners
Dort
352
aden
atten@@
Plaza
59
personally
ausschuß
ont
mitten
zweifellos
-up
losses
Konsultation
glob@@
Arab
Regierungskonferenz
sprach
Maschinen
AIDS
vollständigen
schwer@@
Main
Organis@@
breit@@
vereinbart
Power@@
TA
Gemein@@
gue
machte
Einkommen
Ratsvorsitz
IE
minority
labelling
eye
ong@@
strategische
Minderheiten
Son@@
ständen
emo@@
custom@@
productivity
meist
geeignete
gehende
ily
Gesam@@
ierende
Life
User
duc@@
Differ@@
regul@@
ells
criticism
impressive
tex@@
finished
percent
convergence
provider
Bou@@
Will
Kapitel
som@@
Rap@@
ruhigen
legitimate
Contacts
leisure
Schiff@@
proposing
globalisation
negotiating
resolutions
log
s.@@
Hungarian
Washington
kurze
dd@@
deiner
wirtschaftlich
facility
fantastic
expert
drivers
messages
Stat@@
programming
buchen
Procedure
Luft
ließ
erlassen
oning
sia
OR
ett
tlichen
direkte
hervorragende
vorhandenen
friend
Thomas
Revolution
entdecken
intends
Authority
rein
satisfied
übernimmt
Abschnitt
ersetzt
Welcome
Jedes
Apartment
Process
FT@@
hängen
parks
iso@@
ome
consu@@
behaviour
entertainment
maschinen
erfolgreichen
dependent
Rom
eig@@
mostly
weather
trac@@
audio
Hafen
Ausführung
bestätigen
Komp@@
benen
bekräftigt
ländliche
Kontext
roman@@
Atlantic
ierungs@@
Reduzierung
zuerst
niemals
defend
Ausstattung
explore
ACP
enabling
puts
Kanada
Design@@
career
routes
ap
untersucht
französische
Rent@@
visible
einfachen
heating
p-@@
Dol@@
load
verwaltung
Anti-@@
frequently
gegebenenfalls
va@@
demonstrated
Akteure
tak@@
Mod@@
aviation
invest
stressed
organis@@
ury
legte
rechts@@
ately
Regierungschefs
Sy@@
equivalent
channels
raw
Information@@
vieler
dorf
citizen
drug
Straßen
expansion
Vorsitzes
abgelehnt
lautet
flights
Black
Schrift@@
Award
patent
Fla@@
Not@@
Science
ticket
nungs@@
ktion@@
verfügbaren
Beifall
ji@@
verurteilt
sight
anstatt
prosperity
kung
alistischen
edge
IT-@@
blue
Komponenten
EUROPEAN
Asien
Sollte
mo
info
ories
judgment
dumping
regarded
auer
examined
theit
raising
britische
deals
M-@@
stätigkeit
Lang@@
reich
anbelangt
Entscheidungs@@
gestaltet
ausgezeichnete
Ware
sicheren
är
ination
couple
bisherigen
Eltern
Space
topic
0,000
langfristigen
nec@@
f-@@
Rechtsstaatlichkeit
beraten
industri@@
ison
Mur@@
fiziert
Bir@@
techniques
worse
command
Old
driver
assure
ütz@@
castle
venture
sinnvoll
stück
Back@@
gap
Geschäfte
cou@@
Medien@@
award
lab@@
mentar@@
enterprise
München
ehemalige
Vereinigte
letztlich
investieren
Les@@
20-@@
schla@@
ons@@
Auditors
father
deck@@
abuse
album
cold
schrift
died
revision
Tour@@
Society
committees
Prinzipien
betrieben
Transport@@
bridge
gewähren
klar@@
г@@
Haftung
kehr@@
halb
Nahrungsmittel@@
add@@
eyes
Konsens
Ausgangspunkt
vern@@
einheitliche
Bü@@
Analy@@
Youth
NO@@
üt@@
klein@@
Beziehung
eckt
sich@@
Chinas
EX
newly
Wirtschaftspolitik
zeu@@
dist@@
kanischen
dor
Kontakte
strengthened
addresses
trend
probleme
U.S.
bli@@
happening
gehenden
kostet
genannte
Quar@@
films
Erstellung
doors
zentren
PS@@
ECHO
outdoor
Gol@@
iting
Nein
Pläne
Ausstellung
Jugend
aly@@
Anhang
delegations
IV@@
answers
atik
AUS@@
participating
blood
schli@@
examination
Spezial@@
internen
glaub@@
owner
transportation
Ambiente
zeugen
voraus@@
EWG
CL@@
präsentiert
firstly
ska
sugar
believes
installiert
a.
Staates
op
gemeinschaft
returned
bestimmen
oring
exception
Los
Nah@@
Angst
Fang@@
argu@@
clean@@
ierter
hundreds
contrast
reaching
understood
performed
gerichtet
falsch
Aqu@@
richtet
ausgezeichneten
tickets
PC@@
DO@@
li
Hindernisse
esc@@
Immobilien@@
harmonisation
festzulegen
erst@@
parliaments
starten
Bedrohung
IO@@
Federation
hostels
überprüft
geräte
publication
bis@@
dining
Shop
Freizügigkeit
rap@@
ANT@@
considering
northern
Kann
unabhängigen
Mensch
minorities
Tisch
Front
updates
wünsche
supervision
Flash
bles
Lat@@
kg
showing
multilateral
Trek
griechischen
looked
ged
Kab@@
sending
verstän@@
fas@@
Außenpolitik
satz@@
lieb@@
ersucht
cooperate
Wirksamkeit
schönsten
inhabitants
wit@@
pris@@
ought
ziel@@
einig
bild
Kol@@
menschliche
repeat
iges
ras@@
regionaler
welchem
sehe
stellungs@@
fts@@
addi@@
sauna
Niederlanden
King
freundlich
meant
Inv@@
generated
Assembly
Kas@@
liefert
gearbeitet
Klasse
long-@@
X-@@
brau@@
Ele@@
Versicherungs@@
constitutional
Besonders
Vertragsverletzungsverfahren
standen
wan@@
scheinen
irs
ani
seat
serving
periods
ppe
lec@@
Growth
erstmals
External
lift
Women
Ed@@
Stockholm
Vit@@
Cha@@
adapt
Airbus
unge@@
Pin@@
Declaration
wachsen
alter@@
lien
Permanent
Innen
safeguard
corresponding
solid
Yes
ment-@@
Park@@
Künstler
Brasilien
.....
Wein
justi@@
chung
teilt
Eigentum
integrierten
sprach@@
wonach
effizient
Hinter@@
ensures
ausgesprochen
rock
raten
Anlass
carrying
crimes
tter
transmission
Potenzial
component
ref@@
NGOs
will@@
entsteht
bereichen
Roh@@
mix
bus@@
öffentlicher
specified
holen
Höchst@@
cash
196@@
Fenster
acted
9,@@
ils
komme
verstanden
mü@@
Studenten
II@@
fordere
kurzen
69
reiche
favourable
derzeitige
plenary
Ol@@
proud
sorgfältig
rapporteurs
frem@@
packaging
nam@@
asses
doesn
HT@@
selling
fehlt
decline
Sit@@
dit
Egypt
colour
verkauft
partly
gestärkt
Sicherung
vorschläge
arian
wann
formed
ungs
extrem
klu@@
ungefähr
lots
geplanten
farming
lin
Identität
decisive
starts
Badezimmer
exclusion
heim
fr
invite
occur
adi@@
Fahrzeuge
Foto
Sachver@@
reduzieren
somewhat
Georgia
verfahrens
ausgaben
Budapest
Landes@@
topics
mess@@
blog
drink
islands
glad
fassung
mittleren
ull
authorised
verkaufen
Korruption
rising
professionals
bezahlen
saving
trägen
hall
Drittens
flug@@
jahr
Ausbildungs@@
unmöglich
76
Runde
MEPs
decorated
DC
Real
ennung
pass@@
Sim@@
ela
ases
delighted
recorded
siert
winning
Hier@@
funded
orial
solange
wie@@
Hü@@
Übersetzung
57
obliged
Überlegungen
Acc@@
UL@@
José
Zivil@@
vollem
Estland
Tabak@@
Eis@@
amm@@
than@@
match
trends
receiving
ère
Schw@@
Eurozone
clubs
Beide
läu@@
gliche
cles
correctly
unterliegen
Len@@
prin@@
ähnliche
Werke
angemessenen
besonderer
7,@@
Bestellung
shipping
lovely
angebot
penalty
Gewicht
legally
Staatsan@@
manufacturer
Aut@@
destruction
ergänzt
praktische
Zusammenhalt
Ministerium
Civil
schö@@
Deutschen
sicherung
GU@@
definitely
Arbeitsplatz
Bucht
8,@@
showed
motor@@
Durchsetzung
IX
tically
Music
kro@@
stärkere
fähige
Ratspräsidentschaft
Erd@@
Kohäsionspolitik
Within
strukturen
Musi@@
prec@@
angesehen
asing
83
properties
Dek@@
turen
printing
visited
jährige
Dorf
Soviet
74
preventing
substance
ora
umfassen
gewis@@
cutting
lösung
Ton@@
Bis@@
TS@@
Rechtsgrundlage
Next
programm@@
Without
genügend
candidates
generate
fähig@@
password
ände
Ebenen
mt
einzusetzen
Trau@@
FOR
checks
läßt
riesigen
Herz@@
Verfahrens
Industrie@@
ister
Schwe@@
possibly
teste
Fru@@
renovated
aktivieren
til@@
News
ación
Stra@@
resistance
metal
bedeutende
hervorheben
konzentriert
Kri@@
sodass
schicken
europ@@
10-@@
famili@@
verändern
fers
nungen
gio
angegeben
demanding
theme
übersch@@
ared
Systemen
Mac
USB
Maastricht
well@@
Fischler
aling
unde
towns
programmen
housing
A3@@
cuts
pur@@
Kräfte
tierung
license
high-quality
einschlägigen
änden
Dusche
Fü@@
liste
ausgeführt
classic
Lieferung
ingt
slightly
ok
warning
Radio
BC
aner
Earth
sucht
balcony
Fron@@
replaced
coherent
psych@@
steuer@@
Nachrichten
ix
EK@@
Lettland
tran@@
gezwungen
ization
m-@@
Individu@@
Ausgabe
surroundings
tsp@@
Sc@@
Mutter@@
Erreichung
ased
vorher
201@@
impression
Errichtung
üssen
stro@@
ended
copyright
gold
introducing
plätze
hardware
remote
Person@@
DS
gratulieren
ending
Einwohner
militärischen
familiar
TEN
kette
cir@@
langfristig
moral
Umwel@@
zurückzuführen
Legal
Noch
AND@@
pm
Beitritts@@
burger
zugrunde
Box
Erk@@
tab@@
eres
igh@@
1st
Einheit
Mes@@
ister@@
inner
maschine
Energieeffizienz
Zone
Norwegen
digitalen
Premierminister
vorbereitet
ening
Tonnen
acqu@@
studi@@
räger
Zer@@
Wol@@
Fassung
societies
gaben
ION
Flo@@
rahmen
überein
GNU
Verarbeitung
ebene
Sozi@@
Congress
arti@@
Krankheit
revised
impor@@
ession
spolitischen
modell
ungser@@
einzigartige
Get
kolle@@
careful
orts
input
ity-@@
bike
Hostelsclub
sions@@
Las
grenzüberschreitenden
appointment
Under@@
Kamera
Freiheiten
Sorgen
Verk@@
resource
distributed
Alt@@
Internationale
bereitet
Boden@@
arbeits@@
fs@@
Behörde
å@@
ds@@
cast
gestattet
Rückkehr
lam@@
iti@@
wasser
Tan@@
displayed
lan
Cat@@
Bereitschaft
Jede
Dienst@@
nde
tory
foundation
Abschaffung
immigrants
slow
füllen
Marke
schlecht
festival
U-@@
Pak@@
Je
PS
asi
offiziellen
arrive
woman
kern
contributed
mir@@
assume
frame
territorial
Überblick
Übergang
Wandel
cian
gespeichert
James
lern
division
84
Mechanismen
78
Delegationen
unabhängige
institutionelle
Mün@@
Sommer@@
loo@@
credibility
Plus
ration@@
kel
cked
Komm@@
-F@@
tend
Israeli
AR
Signal
department
wed
istr@@
abgestimmt
Alles
Marina
jährigen
operator
usual
depend
lists
sheet
them@@
stored
Serbien
spr@@
yed
reporting
Kurs
paying
gestaltung
arise
mä@@
prospects
rating
functional
channel
konfrontiert
mischen
Sektors
spec@@
einfacher
steuern
exit
zieh@@
Finanzkrise
erhielt
Farbe
Plenum
mented
verbringen
vig@@
quotas
directed
scho@@
-based
Steigerung
consent
Mittelmeer@@
stages
Geheim@@
kürz@@
Department
märkte
remained
Prague
wines
vin@@
angewandt
nationals
sement
fron@@
Power
elsewhere
ursprünglich
chtes
Sun@@
größer
settings
library
Lö@@
visiting
jegliche
chem@@
Islands
weak@@
Elektro@@
steigern
peti@@
universities
fällig
Kooperations@@
Vorstellung
ques
desk
relative
Annex
Nachhaltigkeit
0s
GF@@
inten@@
wachsenden
ances
graphy
survey
diplom@@
entes
lev@@
oned
erreichbar
percentage
wege
Whether
Saint
prefer
besorgt
verwal@@
representation
äh@@
Firmen@@
Louis
nights
senken
avec
umgeben
neighbouring
Schulden@@
Personal@@
Vorlage
rati@@
eignet
Having
2.0
Glas@@
schw@@
ungsin@@
Hall
Rest
suggested
Danish
tö@@
organisieren
Gem@@
spoken
eien
Projekts
Änderungsanträgen
loan
marine
Labour
beobachten
Rio
supplier
Senkung
Port
attached
interessante
enthaltenen
stars
smo@@
¤
hierbei
aming
11@@
Es@@
hydro@@
Deswegen
wollten
freedoms
Ah@@
lessons
steigt
werken
lob@@
VI
keit
dun@@
amended
gelangt
Buchung
Sitz@@
DG
undertakings
Übereinkommens
basi@@
Staats-
Bestimmung
Det@@
afrikanischen
Java
Gefahren
beglückwünschen
tels
mi
olo
entr@@
î@@
Gest@@
advis@@
Afri@@
jo
val
halten@@
Wir@@
Sig@@
Gegend
Sony
dering
Verbraucherschutz
kun@@
derer
interior
Morgen
wirksamen
samen
suites
Sollten
ham
außen
centr@@
gewonnen
Neben@@
mangel@@
arising
Kilometer
tourists
Church
Sauna
geplant
altern@@
addressing
teren
län@@
Mangel
reject
sco@@
jenen
effektiv
Binnen@@
module
Mach@@
grateful
Fas@@
solches
Einstellungen
offene
angepasst
ECB
Tex@@
fourth
Bade@@
Taiwan
Fitness@@
änderungen
Polizei
typ@@
passiert
corner
ó
portal
Auge
selbst@@
Viertel
kohär@@
considerably
grad
fashion
überzeugen
Netze
unity
documentation
PA
afternoon
Investoren
vely
Messe
Marketing
Stück
Pau@@
wirtschaft@@
alisiert
án
Friday
organic
Andere
heat
gained
Zusätzlich
stem
vorher@@
argument
university
verhalten
gran@@
appearance
ump@@
vorstellen
präsentieren
count
ond
herrscht
fees
Mechanismus
apart
indicators
netz
refers
els@@
ute
ž@@
Gleichstellung
sees
verst@@
subjects
cken@@
Kra@@
ura
earth
egal
constitu@@
lebt
förderung
ersetzen
tigkeiten
regu@@
planet
geboren
comparison
constitutes
derte
eingereicht
swe@@
overview
Versorgung
reflects
geographical
Mont@@
cular
Kauf
ange
nutz@@
windows
ron
Verteilung
Through
Verkehr@@
wild
Professor
competitors
igung
PAR@@
managing
Zwei
Gam@@
yr@@
label
HIV
Fon@@
surveillance
rechtlich
telecommunications
fris@@
siv@@
Insgesamt
armed
Freizeit@@
lis
großem
Band
entwickelte
occasions
dere
gering
hervorgehoben
sent@@
concentration
GE
Sonne
cen@@
View
tun@@
aqu@@
sn@@
ux
fern@@
Mazedonien
chron@@
ator@@
sogenannten
massage
sex@@
individuelle
hear@@
counter@@
encouraged
valley
hierfür
CD@@
hilfe
forests
Auftrags@@
Drittel
electric
Öffnung
Mitarbeitern
stag@@
absor@@
este
Schwar@@
movements
Schlafzimmer
reconstruction
Hostels
Vietnam
ero
individuellen
difficulty
Exchange
leitung
erheblichen
Fal@@
Körper@@
züge
Ausrichtung
Ziffer
relaxation
Based
Golf@@
Refer@@
tea
Einzelheiten
Rem@@
sach@@
Grad
ink@@
severe
studio
entgegen
producer
Vir@@
greatly
Lab@@
Wünsche
ergibt
Fel@@
gewissen
kräfte
nat@@
Wind@@
rain
vention
eventually
eld
prakti@@
effek@@
ж@@
Gentoo
lounge
beschrieben
prop@@
erfordern
exciting
incentives
mother
wert@@
continuous
Straf@@
proceed
maßen
beschäftigen
Identi@@
infolge
Beschränkungen
entrance
hinzu
Wald@@
decade
airports
Sobald
dispute
amt
ativer
hostel
urr@@
ordinary
aufs
itä@@
buch
wiederholt
Provinz
Quelle
intern@@
landwirtschaftlichen
billi@@
constitution
Or
umin@@
Katastrophe
graphics
Force
dom@@
flü@@
flexi@@
gut@@
Thailand
zahl
Chem@@
anschließend
reflected
flat
solely
aire
direc@@
allocation
tief@@
fahrzeuge
ado@@
Gaza
clause
suggestions
methoden
ра@@
restore
Personen@@
ssen
leichter
proportion
Steuerung
40@@
excluded
verboten
domain
umsetzen
Verlust
gewi@@
geschä@@
wat@@
irre@@
schau@@
eingegangen
jener
euros
enabled
bottom
Pass@@
liefer@@
Gerichts@@
Zuge
bewältigen
integriert
arbeitete
Stimm@@
sian
Schu@@
Cer@@
reduziert
Funktionieren
vacation
ami
dul@@
accurate
portfolio
extra@@
jointly
Zw@@
Perhaps
imm@@
schaft@@
adults
Sou@@
Rahmenbedingungen
Kulturen
ASS@@
enjoyed
vermitteln
Rob@@
dance
vereinbarten
geleitet
tables
formation
alia
Relations
modernis@@
kla@@
Archi@@
Verletzung
wohnen
Commissioners
nevertheless
Verbrauchern
Sein
Prof@@
tiere
extraordinary
speaker
gardens
MySQL
achievement
Brun@@
Miss@@
gas@@
mussten
spra@@
configuration
Mah@@
Nachricht
arm
Quality
Quellen
geboten
wage
Ausmaß
slo@@
disabled
step@@
plenty
bet
Schön@@
referendum
exploitation
Versammlung
verringert
Projek@@
dich
umfangreiche
märkten
ô@@
Speci@@
ling@@
courage
è
Währungsunion
budgets
bekann@@
roo@@
liberal
esse
tonnes
Helsinki
Selbst
traditionelle
Webseiten
Speicher@@
aut
я
tter@@
verdient
play@@
entspann@@
suffer
verbinden
grund@@
Scho@@
Küsten@@
sively
Lern@@
gesetz@@
ci
Australia
Pack@@
lier
fitness
drinks
airlines
jährlichen
hinzufügen
Bern@@
par
diver@@
Ergebnissen
brachte
Syria
Parlaments@@
Massen@@
trial
staatlicher
Macedonia
Ty@@
Perspektive
Modelle
UR
auff@@
Zimmer@@
Sin@@
externen
AD
berichten
gener
belief
Adri@@
dal
Wechsel@@
dien@@
sensible
subsequent
mig@@
implications
übermittelt
hän@@
ov
artist
hn@@
Befugnisse
schweren
ähnlich
se-@@
Der@@
Kapital
Wiederaufbau
cosy
Edition
highlighted
Rechnungs@@
erörtert
Wahrung
Charles
seeks
disasters
Av@@
EEA
hearing
sufficiently
Denk@@
Regionalpolitik
completion
Branche
cross-@@
arrived
appar@@
vorhaben
Rö@@
proven
desired
bekannte
schauen
Question
strah@@
Regulierung
conver@@
betreiben
boot
einf@@
Zy@@
Grün@@
photo@@
verehrte
Nachbarn
cent@@
finances
tigungs@@
MB
forschung
ologischen
analyse
Informationsgesellschaft
hohem
Ansichten
fleet
Inform@@
verteilt
sers
ruft
manu@@
ests
inos
gründen
Ausweitung
sit
Institut
umfassend
zeichnen
necessarily
description
gradu@@
erteilt
ées
dest
deposit
79
retail
Telefon@@
Adobe
wechsel
whereas
einzuführen
explained
driven
poly@@
Consequently
Werbe@@
nahme@@
zig@@
protocol
Skype
Selbstverständlich
sights
§
Weg@@
übrigens
zy
Image
UK@@
inde@@
Bewältigung
--@@
ck-@@
Gerichtshofs
endi@@
restricted
schu@@
ergänzen
Glaubwürdigkeit
accounting
suffered
weak
öffentlich
Amendments
threats
Town
gemeinsamer
perfekt
ausgegeben
Hohe
aussprechen
kompet@@
Weiteren
lock
objek@@
hair
ac
Objek@@
beschränken
Konsequenzen
sk
Wirtschaftskrise
tered
Absch@@
Kampagne
wies
ato@@
Oder
500@@
Ken@@
concepts
Schlüssel
ч@@
acks
Inflation
um-@@
missions
auswirken
indicate
New@@
schie@@
adapted
Leitung
ativ@@
Description
Faktor
nine
sought
tively
adjustment
alling
Last@@
außerordentlich
engage
rechnen
aktu@@
hingegen
bilateralen
wahren
füll@@
letz@@
keiten
lio
gerät
Asian
unterschiedlich
Islam
gebeten
rental
wechsel@@
TRA@@
reibungs@@
wrote
wesentlicher
adap@@
Nacht@@
229-@@
PER@@
hy@@
gallery
militärische
permitted
us-@@
Mandat
eligible
wand@@
vorgelegten
Herbst
uted
schnell@@
Flughäfen
zentral
esischen
Institu@@
battle
internationally
everyday
virtual
aj@@
ALL@@
Operation
highlights
auftreten
makers
bett
IMF
Anbetracht
Stufe
errichtet
eta
mers
zahlungen
departure
pack@@
Patent@@
por
connect
Hil@@
revenue
dered
reform@@
Hostel
bezogene
itz
dominant
spectacular
mass@@
Like
Ltd
Betreiber
gebildet
Gau@@
FOR@@
Sek@@
scene
Justiz@@
ен@@
phrase
dische
zun@@
ager
Bul@@
Countries
beings
Gold@@
gere@@
beruflichen
о
stylish
usses
een
dramati@@
Vorausschau
ehrt
Don
pilot
unterscheiden
su
Project
geber
anzuwenden
Protokolls
zogen
langsam
innov@@
bol@@
Il@@
Positionen
itation
ST
complicated
CS
Sicherheitspolitik
steh@@
arguments
Strasbourg
ered
fon@@
priv@@
operates
associations
Tau@@
ais
wohl@@
erzeugt
Chairman
Innovationen
moder@@
shift
governing
panel
sil@@
installieren
essi@@
nei@@
alisieren
fans
inter
DES
fehl@@
wear
häuser
täglichen
in-depth
pace
gefallen
früh@@
nom@@
traditions
schei@@
genehmig@@
natürliche
politically
ici@@
Versionen
Ehr@@
Freunden
Ferien@@
sized
Telekommunikations@@
Update
fly
verw@@
Administration
Puerto
Rein@@
Kopf
public@@
festzustellen
erhoben
vorliegen
Show
Balkon
engaged
Co
Small
Pho@@
verstärkte
stolz
zugute
aside
statisti@@
ergän@@
promised
conventional
geplante
Competition
staat@@
Fun@@
Veränderung
Handlungs@@
Früh@@
stag
weekend
filled
Erasmus
Bahn@@
lierung
Chile
real@@
erlebt
Applause
optimale
Bars
haber
num@@
gendes
fahrer
appeared
ito
Gelder
unfair
Poly@@
et-@@
Tourism
wave
pression
lauf
Gerechtigkeit
secret
refer@@
Investitionsbank
GAP
reise
Hochschul@@
Well
angegebenen
ols
Produk@@
Balkan
beseitigen
Haushaltsplan
cin@@
succeed
miles
conservation
feu@@
gradually
Prozesse
politisches
homes
root
räumen
Computer@@
Wes@@
thers
ruling
rechtzeitig
verbindet
ii
ologische
army
COUNCIL
sex
Tab@@
cancer
Videos
Nachbar@@
kri@@
countryside
Konflikte
Rund@@
inklusive
wiederholen
firmly
Stad@@
habit@@
significance
Kompetenzen
gelassen
tax@@
80@@
Gemäß
sections
gebo@@
aching
ular
missing
spartner
normalen
Übertragung
patient
cos
Bab@@
Vel@@
ading
kün@@
roll@@
Thirdly
pt
MAR@@
absol@@
Tschechische
Valley
fanden
chtungen
Desk
handle
Situationen
bia
geschichte
angewendet
Konzer@@
chts
Besides
transfers
holds
gestellte
Stimmen
amending
rö@@
toward
alt@@
EG-Vertrag
Salzburg
Standort
religion
Rückgang
transitional
united
Kopenhagen
Geschle@@
Meeting
zuzu@@
accident
bewerten
Unterzeichnung
hundred
approaches
900
dict@@
Apple
Blo@@
Drei@@
druck@@
Dun@@
uneingeschränkt
iner@@
gedacht
Wür@@
erleichtert
OECD
Mö@@
Wo
zin@@
sah
bran@@
Wi-Fi
effizienter
krise
Regel@@
ect
Bemerkung
collected
leben@@
letztendlich
integrate
NE@@
letters
sz@@
Mail
kontrolliert
Weiterentwicklung
Salz@@
Touristen
Stellungnahmen
Among
neun
abilities
pot
'm
Hof
capabilities
Liechtenstein
spoke
Sonn@@
alise
Blan@@
Page
Entschlossenheit
Polizei@@
ght
NI
Ägypten
Verlauf
Kranken@@
produkten
ausgezeichnet
kontrol@@
Seg@@
Sunday
Urheber@@
jetzigen
therapy
cky
theory
Köni@@
EZB
ever@@
Berichten
layer
authorisation
Dokumenten
bende
ration
ew
lunch
rare
Thursday
MA
Inkrafttreten
betrieb@@
processed
Wesentlichen
ruhig
vorgestellt
nd
Kle@@
voraus
Tem@@
praktischen
Politi@@
Gang
Software@@
design@@
phones
manche
eli@@
mach@@
bewertet
reservations
dou@@
DEN
dness
originally
supplied
sprä@@
ausgewählt
Entlastung
lung@@
nütz@@
Dritten
pillar
Corporate
Abhängigkeit
attra@@
marquis
appropriations
Wohnung
Rezeption
Road
negotiation
geri@@
Cu@@
Islamic
Canon
blick
rie@@
HR@@
concentrate
poses
Wettbewerbs
irischen
beabsichtigt
cells
körper@@
enthalt
organisierten
Chancengleichheit
verti@@
Agenturen
Zahlung
regel@@
Nos
fertig
erheben
finanzieren
Kla@@
kenn@@
Aufforderung
Barnier
Dep@@
preliminary
Billi@@
artistic
pen
gerufen
Kriegs@@
DER@@
Verabschiedung
untersuchen
diskrimin@@
behaupten
straight
transferred
filter
attempts
freut
male
Widerspruch
hochwertige
vieles
Interessen@@
zeug
isp@@
ep
Direkt@@
ico
dienstleistungen
Fig@@
magnificent
cop@@
alisierte
Rechten
gn@@
vocational
isl@@
della
errors
Licht@@
kö@@
rats
bares
befasst
ped
violations
tigungen
mechanismus
scientists
Arbeitnehmern
reck@@
fundament@@
schwei@@
eingestellt
sphere
Vertrages
Beg@@
Regions
BMW
pap@@
Budgets
müssten
PD@@
acceptance
stä@@
caf@@
FA@@
vent@@
prime
Games
Leg@@
Who
didn
Pun@@
bergen
leaves
recognized
none
Gran
iss@@
ump
stärksten
Schwei@@
stör@@
EU-Ebene
Vater
Außen-
Haar@@
bemerk@@
erzielten
Dro@@
bekämpfung
gelingt
dation
female
fishermen
thousand
pflich@@
Geneva
ziel
p.m.
bonus
Glück@@
regardless
beantworten
Ursachen
ITEMS
normally
regulated
Language
killed
Ker@@
negativen
Hom@@
pec@@
il-@@
centuries
einzelstaatlichen
approve
verd@@
Rab@@
Eink@@
Statistiken
Register
Doha
progres@@
fig@@
Papier
beit@@
Ashton
einzigartigen
by-@@
tle
zielt
Benutz@@
geregelt
liked
Wur@@
Ganz
reibungen
doku@@
Fernsehen
anwesend
Schiff
uniform
äd@@
complaints
Cir@@
Ernährung
Spitzen@@
Direct
museums
losigkeit
baus
prozeß
confirmation
teachers
beendet
nummer
integr@@
sh
weltweite
eas@@
amed
aw@@
fax
Jugendlichen
Milch@@
sinn@@
Tat@@
generations
urgently
Volkswirtschaften
zukünftigen
Theater
willingness
videos
dauer
äumen
kleines
noti@@
Reding
kno@@
Bl@@
Jan
gekennzeichnet
verteidigen
spa@@
villages
Konto
üb@@
wendet
dating
fairly
turning
anwenden
kä@@
Vier@@
travelling
folge
EST@@
PUNKTE
Großteil
ME
destroyed
Pfer@@
renowned
liter@@
beri@@
Spaß
kontrollieren
tech
Beschäftig@@
Lizenz@@
modern@@
auto@@
dy@@
Blog
Büro
till@@
verantwortungs@@
Should
accidents
teaching
Bosnia
binden
Cri@@
Allianz
Betriebe
ktiven
Kategorien
Kapazitäten
heading
Abbau
lion
ald
Marken
Eff@@
ed-@@
Kap@@
mechan@@
Unions@@
Beachtung
digitale
ueber
presenting
fli@@
Schreiben
berufliche
erkannt
combine
ride
wireless
Anmeldung
Americans
Kontinent
manufacture
SV
Pakete
Trotzdem
Transpor@@
inst@@
dated
unterstreichen
faces
not@@
й
Cup
ratification
thin
thy
Richard
anner
Saf@@
profits
Level
Export@@
grös@@
Änderungs@@
schriften
parameters
lers
gehörige
sidenten
Cho@@
medicines
Pacific
schrittweise
ennen
dau@@
Audi@@
cas
Garden
Lernen
Gerät
sammeln
esten
audit
beihilfen
treff@@
Dafür
ease
geprägt
signing
gelegenen
steuer
reaction
welcoming
entering
consequence
Sammlung
fang
Geschäft
cleaning
Lohn@@
Darum
counter
disk
trips
mitteilen
Bedürfnissen
Set
findings
lon@@
allzu
Mail@@
uter
visu@@
red@@
Syrien
Live
Generationen
wonder
Family
angebracht
bedeutenden
Dr@@
drop
consulting
efficiently
flächen
Anreize
entscheidenden
AM
teils
sili@@
onal
endgültigen
affecting
elec@@
crises
Master
Blue
bo
acquired
Tests
ION@@
finish
normalerweise
italienische
Mexiko
expor@@
ELL@@
regi@@
ope
seu@@
cial
festen
erie
philosophy
cont@@
football
Client
directory
contributing
prob@@
sparen
gemeinsames
beizutragen
Defence
hinzu@@
alem
Gemeinde
Reisen
größeres
Shar@@
Somit
specialist
tief
festlegen
Führungs@@
gän@@
Lebensmittelsicherheit
garten
dauert
agents
SD@@
oria
individuell
wu@@
Access
sus
Dreh@@
Registrierung
deeply
1988
sovereignty
atively
correc@@
federal
Todesstrafe
Fundamental
Hamas
Staff
critic@@
Č@@
visual
überwachen
komple@@
Jacques
Ablehnung
hr
pure
fik@@
fut@@
Ale@@
Sind
CO
paket
Water
Anwendungs@@
non@@
vornehmen
stammen
ungspolitik
gab@@
instructions
ø@@
aufgebaut
gefährdet
dlicher
Entwicklungshilfe
Monday
SW@@
COM@@
upper
LIN@@
luxurious
Sachen
ы
bekommt
Heran@@
lights
dignity
Schwellen@@
influ@@
designs
trag
permit
ь@@
of-@@
spiele
freundlichen
shortly
bereiten
wunderschönen
nomin@@
researchers
colours
Pul@@
Umstrukturierung
boards
ires
zeichnungen
schutzes
meets
Tools
harmful
Typ@@
buch@@
bat@@
Zeitplan
überwinden
finanzi@@
teen
gin
Teams
Mut
branche
Pop@@
geraten
ano@@
projekt
Rin@@
prosec@@
reinforce
Py@@
umzu@@
relief
Ky@@
pt@@
fir@@
pfung
resulted
assembly
bewer@@
Deb@@
individu@@
WLAN
genes
erei
Gran@@
hopes
60@@
Kong
well-known
Mängel
Sco@@
eing
ordin@@
facilit@@
Metro@@
relates
Gerade
pools
chemicals
Micro@@
inclusive
krimin@@
xis
eat
UNGEN
Jahrzehnten
Tieren
Ga@@
mid-@@
blocks
extending
Betracht
EE
Hong
geschlossenen
executive
relevanten
freely
gehandelt
Inneres
Bosnien
three-@@
überra@@
SC@@
Bran@@
Treaties
bed@@
scheduled
celeb@@
operated
iler
stitu@@
UNG@@
lichkeits@@
Tei@@
ji
Gas
ford
joining
bild@@
einfach@@
gross
Exper@@
guidance
palästinensischen
aria
Dam@@
anschließen
realise
ernsthaft
illegale
hardly
damages
Siehe
aufzubauen
shot
zukünftige
supposed
ownership
gige
essentially
Glück
ystem
leistet
bly
Besteuerung
öff@@
GD
authenti@@
Glob@@
EIT
rig@@
KL@@
gegenseitigen
Wirk@@
granting
Lit@@
endorse
virus
empfohlen
computers
follow-up
Diplom@@
Opposition
vorliegende
mittlerweile
produces
Berliner
halt@@
diert
eite
anzubieten
Place
......
Anhörung
compulsory
produk@@
quo@@
vorschlag
gemä@@
Bin@@
ship@@
Sau@@
quar@@
College
itable
Roll@@
lived
Patten
oms
Volkes
fizierung
gepf@@
commen@@
clarify
bedürf@@
zog
Á@@
inmitten
birth
proz@@
ekt
Sierra
adverti@@
anim@@
normen
erfreut
opol@@
Capital
Gewinn@@
ktive
gesetzten
techn@@
gegenwärtige
Climate
Grundsätzen
Lounge
atz
astic
Alters@@
Fehler@@
reliability
director
Email
deswegen
Does
tionally
Herkunfts@@
ING@@
symbol
Hö@@
Georgien
EESC
asp@@
ès
passen
genaue
Schla@@
Journal
hart
Ani@@
KO@@
Überarbeitung
hohes
Morocco
coastal
Geo@@
sichtbar
crip@@
Guests
liable
Ansch@@
Ret@@
Zwar
satisfy
selten
Alexander
xel
cultures
cell@@
Beurteilung
Beschluß
bou@@
gin@@
Emissions@@
representing
greenhouse
qualitativ
mand@@
dream
bour@@
gert
faith
komp@@
tennis
abstimmen
Verteidigungs@@
endgültige
Sup@@
schule
Distri@@
Freitag
Derzeit
Reserve
kredi@@
ori
Verfahrens@@
Gir@@
Bedien@@
erweitern
13.@@
skiing
Castle
keinem
ließen
preparations
benden
Europa-@@
navigation
ierenden
Stahl@@
Kollegin
Motor
Grünen
ösen
iel
Holiday
etzen
ners
Heads
Gast
widespread
versichern
lokaler
selb@@
legi@@
student
,00
Verlängerung
Dies@@
1.5
hence
empfangen
Nav@@
Albania
Geschmack
chair
Tool
gesellschaftlichen
regierung
Dre@@
emission
Wissenschaftler
Point
korrekt
mid@@
Posi@@
Offen@@
1980
Aspekten
Erzeugung
fak@@
Technical
infringements
heben
Mol@@
fed
absch@@
classes
everybody
Manuel
Produktion@@
ful@@
FL@@
og@@
spreche
Todes@@
alty
spolitische
Clu@@
our@@
sität
Les
agra@@
schem
ums@@
türkischen
underlying
beenden
Nation@@
Parkplatz
mittlere
verdienen
effektive
stattfindet
Southern
esti@@
soil
viertel
organise
entspannen
shel@@
sounds
loser
preserve
parliament
Wählen
grenzüberschreitende
dargestellt
abil@@
deadline
speichern
Captain
ital
Hä@@
execution
geschäft
duration
Plas@@
technischer
edition
ökologischen
350
Up
Check-@@
prozesse
Schon
remarks
Galileo
applicant
Referenz@@
leh@@
südlichen
geäußert
mentary
ollen
roots
letzter
kräf@@
stake
Führer
Konferenz@@
erforderliche
ligkeit
alls
identification
comparable
Organ@@
Kul@@
einzel@@
europäisches
Prozeß
qualifications
suggests
Browser
Lok@@
wä@@
vertritt
Blut@@
Suiten
twice
arbeiteten
handels
Instruments
mine
sizes
structured
Grünbuch
gesetz
consolidation
melden
Guide
Indian
Ten@@
Gewal@@
Vermittlungs@@
ille
Amts@@
lösungen
begleitet
thermal
mung
produzieren
Situated
tain@@
ücken
learned
Pati@@
besu@@
aktiviert
Schweizer
engines
occup@@
Playa
schnellen
atur@@
wahlen
klein
surely
quellen
cab@@
enorme
Real@@
Macht@@
techni@@
Provin@@
pho@@
modules
inn
schwere
A5-0@@
premi@@
Kandidaten
Cel@@
Notes
jen@@
invites
timetable
integrierte
tivity
verletzt
unded
reserved
interessant
delicious
2016
gam@@
lobby
free@@
ats@@
zukommen
initially
Menü
focuses
pp
denjenigen
Stell@@
aks
dargelegt
Dritte
rahmens
Defizit
Würde
Corporation
Red@@
anforderungen
ax@@
yle
übermitteln
behoben
Eingang
knapp
geeigneten
iled
gesetzlichen
camp@@
abri@@
diplomatic
ministerium
istan
spir@@
offizielle
Donnerstag
finds
illi@@
stoßen
Resi@@
guided
empf@@
worst
©
Ag@@
üs@@
eliminate
grown
ologischer
müsste
Ablauf
Rh@@
Gehminuten
drin@@
publications
revi@@
zeichnete
han
fü@@
frühen
gesichert
dal@@
ade@@
Bord
contrac@@
angenommenen
Iceland
reasoned
Darstellung
abkommens
achtet
opens
zeichn@@
gleichermaßen
characters
selben
biodiversity
villa
gence
focusing
kontaktieren
strictly
Airlines
dend
altung
saved
musical
autumn
natur@@
compete
functionality
Feld
Pflanzen
anywhere
XP
doubts
erien
vielfäl@@
gebühr@@
worthy
expec@@
Technologi@@
Häfen
lor@@
fix
Armee
beschleunigen
Venice
observed
ost@@
lieber
sensi@@
akzep@@
Sign@@
Haushalts
ey@@
ecological
überein@@
Pir@@
song
INTER@@
Sterne
sü@@
MEN@@
fügen
Bat@@
Erinnerung
unforgettable
TEN@@
unterbreiten
Prüf@@
fan
Official
CC
propri@@
tree
Gewässer
Dach@@
Get@@
c-@@
beru@@
collect
stands@@
neighbours
stützen
kapit@@
ordered
Facilities
sible
arm@@
Kun@@
hi
soli@@
Ari@@
secondary
werks
goo@@
solar
cell
leitet
Vertrag@@
grosse
Lizenz
mur@@
informationen
Deutsch
occurred
Wiederherstellung
ential
neg@@
Bearbeitung
Lastly
fährt
mul@@
NG@@
MS@@
ua
mechanismen
iPhone
Betrieb@@
healthcare
Nat@@
suit
Intelli@@
Tip
bestellen
Nigeria
Governance
Ankunft
Kürze
seri@@
ständiger
Redner
tial
incorporated
Beru@@
UB@@
Wirtschaftsraum
dien
Administr@@
Lateinamerika
gla@@
Respekt
smooth
Jean
Hinweise
Halb@@
bach
geführte
antworten
referring
Socialist
Parlamente
eingesch@@
gerechte
SAP
Zeitung
Dur@@
ratio
remin@@
Ausgrenzung
jurisdiction
informal
exchanges
prece@@
broader
schm@@
ago@@
NE
freund@@
behand@@
Börse
passt
viable
employed
fortgesetzt
Kennzeichnung
choices
Journalisten
wis@@
zia
Franz
wirk@@
ms@@
travel@@
renewed
ader
lichsten
konkret
Aufhebung
Gebühren
worfen
Grundlagen
cha@@
transit
hospitality
Cy@@
ро@@
frequ@@
grants
Kroes
GM@@
Debatten
SL@@
netze
Präsenz
Kirk
Antonio
Work
Ev@@
elten
ungsmaßnahmen
urgency
usw.
Vorsch@@
Fir@@
Zug
xen
ITY
songs
publi@@
heads
Geschwindigkeit
economically
1,5
lement
Mittelmeer
imagine
prim@@
Banken@@
wach@@
altet
plastic
nern
alists
push
expand
Genießen
tät
Fortsetzung
stammt
ão
Gemeinden
restored
Phil@@
wäl@@
weilen
Saturday
Spr@@
ill
innen@@
130
räu@@
kir@@
schlüsse
beinhalten
anzupassen
everywhere
breach
ple
merk@@
könne
undoubtedly
Erwerb
tracks
wick@@
auffordern
vali@@
managers
Children
Invest@@
stän@@
Erst@@
taining
Stärke
Ausflüge
gefragt
is-@@
Several
movie
May@@
Unternehmen@@
siven
mitt@@
Garantien
Verordnungen
Erst
anzunehmen
swit@@
province
Schulden
ausüben
meal
entliche
Betten
beeinflussen
gestal@@
utmost
vorzunehmen
erörtern
lending
Eurostat
partnerships
folgender
grenz@@
diff@@
bot
erwerben
zü@@
labor
ologisch
Kö@@
vern
bezahlt
zusetzen
Mark
IWF
alongside
dio@@
IA@@
repe@@
antes
pressing
ceiling
Universitäten
Planeten
SH@@
dialog
EU-Kommissar
ан@@
regionen
CN@@
amenities
inspection
nisses
Konjunktur@@
servers
Four@@
Well@@
automati@@
anniversary
Tausende
herunterladen
Total
causing
vorbei
zeitraum
Parameter
Verheugen
certainty
Kompetenz
Finnish
endor@@
nord@@
diensten
Dass
eigener
Ratifizierung
Energiever@@
civilian
König
Tages
ausländischen
hinweg
sachen
tenden
promise
fei@@
Miß@@
resp@@
planung
Abendessen
inhal@@
Bag@@
schwedischen
considerations
trav@@
teu@@
gewünschten
Academy
Stuttgart
see@@
Übernachtung
Green@@
Burma
revolution
Three
forderte
enhancing
kreis
vice
catch
eurozone
phenomenon
Frühstücksbuffet
enhan@@
tol@@
überaus
gering@@
Peace
proc@@
hü@@
alcohol
Andererseits
gres@@
Check
Piazza
DP
Verb@@
ee@@
dry
reis@@
schnit@@
fortsetzen
ESS@@
entdeckt
Dynamik
Vorsitzenden
tac@@
Christmas
pensions
adding
ples
individually
heres
sauber@@
Up@@
Bereits
uro@@
Will@@
erkennt
Hans
stance
n-@@
upgrade
urlaub
Strecke
Cohesion
assen@@
printed
vorsieht
ville
Working
tionary
affects
bearing
berechnet
Zunahme
nützlich
haftet
gerechtfertigt
Volksgesundheit
Innovations@@
Einnahmen
könnt
Mittelmeerraum
Mem@@
nar@@
flug
partial
Öl
maß@@
diesbezüglich
Binnenmarkts
Schloss
employers
switch
fit@@
codes
Freund@@
atom@@
beziehungen
я@@
rom@@
zige
dankbar
Tür@@
klassischen
horizontal
Willkommen
stau@@
know-how
verweisen
aufbauen
hervorragenden
Arbeitgeber
spectrum
freight
bi
leiter
innovativen
cla@@
istisch
seg@@
leu@@
Г
intelligent
rent@@
conferences
sson
HTML
Jac@@
Datum
Full
etc.
dei
Ori@@
Sohn
formally
west@@
bahn@@
lehr@@
kurs
geringen
Vorrang
wissenschaft@@
interne
Mallorca
Entwicklungszusammenarbeit
nbsp
rem@@
veröffentlichen
kontrollen
olle
aches
verein@@
mens
fications
Straßburg
ans@@
underground
verkehr@@
beginn@@
treatments
composition
Bezeichnung
Optim@@
integrity
marktes
Mutter
tious
neutr@@
acknowledge
existiert
dead
Strom
belieb@@
Annual
Beschwerden
Together
timely
Album
gos
oo
aut@@
Top
heißen
records
lick
stimm@@
Wellness@@
Allgemeine
Fahrt
betrieb
waffen
Kü@@
factory
Eröffnung
dollar
Eng@@
Sicher@@
populations
chens
verzeichnen
Währungs@@
Vertretung
Hat
nes
wellness
attend
amazing
subsidiary
principal
sely
norm@@
evol@@
Verstärkung
ras
achievements
shore
steam
dark
Ausnahmen
poorest
Eur@@
anzuzeigen
fortzusetzen
whereby
Nizza
CAR@@
180
inser@@
reagiert
bat
till
Joseph
var@@
construc@@
Haushalte
metro
radik@@
besucht
Constitutional
Öko@@
vergleich@@
Sowohl
asset
Siemens
Berg
Jur@@
repair
setzte
instruc@@
österreichischen
Kommissionspräsident
Meinungs@@
SE@@
digte
grossen
Ven@@
Portal
Orte
antly
Jer@@
Völker@@
Studi@@
sibility
rt
sessions
Bevölkerungs@@
heim@@
dian
Katastrophen@@
Cur@@
sauber
cast@@
pak@@
Cookies
ausländische
Südo@@
generell
gast@@
technologie
aul@@
eingeb@@
rupt
Franc@@
armen
Sicherheit@@
tiz@@
spätestens
ishes
chers
convention
Ach@@
belong
SK@@
EWSA
undertaking
Wochenende
Baum@@
Third
medicine
mani@@
riding
negotiated
ean
Werden
ко@@
undertake
miss
hinaus@@
empfiehlt
Customer
reputation
vre
Lou@@
Benutzung
1987
zeichneten
Umweltfragen
compact
Fore@@
Cab@@
Tibet
Sied@@
hotel@@
ICH@@
SIS
Zwischen
grenze
Islam@@
Lis@@
treiben
beibehalten
stores
Ec@@
ähn@@
wes@@
zusehen
Meines
gegenseitige
Besitz
romantic
Tag@@
Gor@@
Sri
subsequently
älteren
ve-@@
Heizung
short-term
var
Connec@@
en.htm
Aktu@@
Museen
getreten
struggle
wohn@@
dependence
installations
itali@@
Erfolge
Autobahn
consultations
varied
smart
adds
EGF
austausch
behält
medizinische
Fläche
Vista
super
Stock
zugestimmt
erwähnen
effizienten
virtually
liger
honour
kn@@
lege
chapter
SC
electoral
fails
mere
Ersatz@@
bewahren
neigh@@
Verzeichnis
certification
campaigns
én@@
gues
Länge
Kern
alising
wald
offiziell
Tsch@@
Käufer
aufnahme
stam@@
commit
gänge
zerstört
disputes
EUROPÄISCHEN
initiated
angekündigt
ame@@
kas
hoffentlich
organ@@
lingen
tatsächlichen
gewählten
zentraler
Visa
behandlung
yard
olive
magazine
emplo@@
Anna
Deutschlands
pretty
posed
prize
eo
cau@@
communicate
Entspannung
Fehl@@
Sum@@
vi
Südafrika
Eth@@
Schüler
inadequate
Marokko
Ministerpräsident
gia
Partnerschaften
Klimawandels
journ@@
brow@@
zierung
Maschine
accordingly
handels@@
sonstigen
ultimate
36@@
deep@@
DR
Jung@@
ер@@
CHF
Cast@@
erwiesen
licht@@
2nd
usage
betrag
Hän@@
Top@@
beef
Asi@@
Beihil@@
gingen
zerti@@
bewertung
het
Tal
substantially
formats
enne
Location
gesam@@
inge
Port@@
gehei@@
artige
Pack
Lebanon
Rechnungshof
Kenntnisse
Gipfeltreffen
vergeben
consult
langer
endet
tile
Monti
Rußland
Amerikaner
Cr@@
bled
Ameri@@
ao
ris
chi
Content
Kongres@@
Filme
illa
Leh@@
amps
Moldova
Herzegowina
Spielen
ali
ousness
1986
Leiter
Jedoch
Marken@@
Reservierung
zugelassen
OK
Mir
Meg@@
sonstige
Rats@@
Vertrieb
ologi@@
dürften
Tor
progressive
Over@@
dition
1985
begins
komplette
swi@@
Ständigen
aster
spanische
marking
Religion
Anträge
sau@@
sums
ran
ae@@
konfigur@@
minor
agentur
voc@@
industriellen
bonds
briefly
Gesetzes@@
lian
Waffen@@
tei@@
seats
siv
Herzegovina
Gruppen@@
utter
begegnen
Infrastruktur@@
electrical
plates
ANG@@
bedanken
Compu@@
practi@@
pursued
foundations
Would
polnischen
erzeugen
combines
AKP-@@
retain
funktion
Florenz
elte
ston
Bour@@
Weißbuch
fes
Produktivität
Bibliothek
welle
operative
Ausrüstung
fairen
Autos
günstigen
bank@@
ätze
ral
überlassen
recording
Schönheit
sichtlich
eland
veran@@
gebilligt
Schlaf@@
tz
CA
brauch
Tschechischen
hill
tant
schluss@@
ati
oll
Casa
Haiti
sieren
activ@@
eröffnen
tätigen
judge
dents
stic
Steuer
Objective
zierten
bürger@@
ökonomischen
relationships
geblieben
contin@@
Albanien
Ansprüche
Opera
Source
pes
Werten
Minute
reductions
Rus@@
environmentally
Är@@
onom@@
küh@@
300@@
wechseln
sse
power@@
posts
ouse
spite
arrangement
sand
ziger
gestiegen
obligator@@
Il
delays
script
checked
lica
gültig
girls
Jun@@
östlichen
Events
aku@@
chinesische
Hum@@
imperi@@
ex
mäßigkeit
diger
objec@@
vent
block@@
fted
ßer
verwendeten
composed
Bö@@
forth
Gaz@@
Gut@@
¼
zwingen
Wand@@
Pay@@
floors
meter
begründet
größter
Vorstellungen
insufficient
Spring
irgend@@
Haben
gewidmet
Cuba
falling
steu@@
gewicht
short@@
Euch
strasse
froh
Kohärenz
lebenden
lädt
kommun@@
Play@@
Finanzmittel
Frauen@@
Kreditkarte
CEO
wander@@
schwierige
betriebe
SOL@@
eria
Übrigen
Danach
ausreichende
tti
cker@@
fewer
Abschluß
low@@
Be
späteren
traum@@
sophisticated
erfahr@@
Stiftung
NRO
Vic@@
Vizepräsidentin
Holz
champi@@
unzu@@
quota
weis
teilte
günstige
schriftliche
succeeded
sexu@@
Sky@@
Ausübung
Ry@@
UM
Zulassung
Mädchen
camp
perfekte
gebühren
ähnlichen
Qual@@
collabor@@
Strah@@
credible
removal
Bom@@
residents
eira
Using
änder
zwölf
vorliegt
raums
purely
Anwender
engen
Schn@@
110
Wiederauf@@
Intergovernmental
gegebenen
Tak@@
nü@@
kes@@
thorough
vermieden
beu@@
Betreuung
Tun@@
daten@@
derten
Leben@@
solide
Abteilung
shadow
erhol@@
Regulierungs@@
unmittelbarer
publish
verfol@@
investigations
netz@@
int@@
recognize
tika
beschließen
Contact
Edinburgh
encies
trat
exposed
Friendly
logical
Altern@@
violation
freier
sozial@@
technologische
gei@@
wör@@
но@@
Citizens
losing
A.@@
bru@@
inspired
oli
Schlußfolgerungen
Debian-@@
abend
Basel
führungs@@
fügt
compres@@
stätten
offenbar
bench@@
selber
sub-@@
prisoners
polis
mandatory
orientation
ached
hast
pit@@
guar@@
beer
tert
Mitglieds@@
pä@@
sterben
surprise
Themen@@
EF
Haut
kehren
sogenannte
angebote
Tou@@
erstreckt
Product
forming
urt
sä@@
exact
mei@@
erneuerbaren
Revision
án@@
mistake
Sol
restri@@
postal
kür@@
Herz
Hauptbahnhof
generi@@
textile
Laut
Weiß@@
eless
tations
Zugangs
mitglieder
kapital
struc@@
klin@@
ordnungsgemäß
Jerusalem
skosten
vos
ř@@
Haf@@
specialists
Vari@@
ign
fuels
bility
cool
Herr@@
Betra@@
Australien
besonderes
komfortable
vac@@
Fan@@
overlooking
Head
soeben
non-smoking
imported
minister@@
narrow
ema
Al
volles
wort
simplification
Schengen-@@
Palette
Jean-@@
picturesque
Konvent
guaranteeing
Country
vise
Montag
Wissen@@
Nero
geliefert
constructed
hypo@@
deliber@@
rad
crew
DV@@
ski@@
clu@@
Nachdruck
journalists
Guidelines
Einen
Schutzes
broken
Begründung
Democratic
mile
Luftverkehrs@@
kilometres
Transfer
deficits
Line
Infrastrukturen
Entfernung
tes@@
Mob@@
homo@@
cti@@
alitäten
sweise
wiesen
chnungen
mögen
CDs
Arzneimittel
convenience
gang@@
BA@@
Darfur
conversion
wachsende
gelesen
elli
radical
legitimacy
agi@@
Num@@
Lon@@
gemessen
UNO
Professional
Golden
thri@@
richtungen
grünen
bedroht
manchen
superior
W-@@
chä@@
Innenstadt
Prize
Koh@@
rest@@
oppose
faszin@@
dres@@
Tür
Palacio
wur@@
weiterzu@@
Kaffee
räum@@
stechnik
passing
Urlau@@
unemployed
listings
at-@@
Beamten
Fluss
dom
stories
würdig
vil@@
Europa@@
taxi
europa
BA
repeated
prev@@
Release
span@@
explanation
lei
Valencia
beruhen
ept
Passwort
Inst@@
н
Besu@@
änge
withdraw
segment
over-@@
Brand@@
casino
eu
Wähler
Sound
veranstal@@
295
begun
gegenüber@@
Section
niedrigen
succ@@
USS@@
holder
assessed
aufgeführt
Zucker@@
sie@@
hebt
Hein@@
UNESCO
releases
enlarged
kernel
Inc
Form@@
ebenen
aktualisiert
anian
pay@@
exec@@
Industrial
ingredients
compo@@
panoramic
erstes
deutsch@@
richtung
gestatten
Nor
zel@@
Glauben
Lebensmitteln
Aktions@@
zones
arium
jüngste
extrac@@
Drittstaaten
territories
pa
hiking
Freund
Neelie
ental
ault
devoted
respectively
Apart
niederländischen
oftmals
Argumente
Augenblick
eventuell
Meer@@
Renn@@
Rand@@
outs
fing
ox@@
Yugoslav
Zürich
stuff
oured
Kapazität
assurance
fell
mouth
geschickt
vable
Have
institute
Stabilitäts-
pol
Strand@@
Parkplätze
troops
Satz
verschieden@@
zierte
nehmer
wächst
Föderation
ín
lieben
einig@@
suff@@
Fischereipolitik
alistische
Unternehmer@@
Kie@@
Indikatoren
maximal
kämpf@@
native
spezialisiert
e-
such@@
Atlan@@
Pflichten
kriterien
H-0@@
Ministerrat
onien
bla@@
first-@@
üblichen
xed
onic
Einsatz@@
Cra@@
unnecessary
Streit@@
Univer@@
Maschinen@@
Them@@
ario
voraussichtlich
eption
shand@@
berei@@
Wild@@
ý
Drogen
Detail
stur@@
jun@@
gling
Russlands
Speisen
eingeräumt
margin@@
concert
sleep
promises
Nokia
kommens
deut@@
Tief@@
zweifel@@
ima@@
boats
Pension
Umstände
victory
Emp@@
SY@@
lim@@
τ@@
evident
newsletter
tariff
Car
Lissabon-Strategie
zweiter
jährliche
Million
vary
Know-how
synchron@@
loading
wartet
Prozess@@
linge
überwacht
Arbeitsweise
Zertifik@@
pick
taxpayers
handel@@
Die@@
SS
ahnen
archi@@
künst@@
threshold
divi@@
ood
Einleitung
symbol@@
plac@@
Porto
bathrooms
frequency
herstellen
LAN
sanit@@
Hierzu
ritt@@
amend
statistical
Residence
respects
Oc@@
Automobil@@
erarbeitet
Cle@@
Diam@@
promoted
Bewer@@
Hafen@@
oldest
ned
BS@@
Doku@@
Arbeitsgruppe
Souveränität
leitungen
Spektrum
Stro@@
rum@@
mittel-
verschaffen
enza
bright
stunning
e.g
verwende
Feststellung
verabschieden
klasse
unterschiedlicher
ité
Nä@@
Chief
Häuser
max
compla@@
langem
KOM
schluss
feet
Bud@@
Fur@@
ändert
teilung
Truppen
deutliche
sitz
condem@@
notification
erweiterten
alisten
Behin@@
automotive
ow@@
aktuell
Wellness
herzustellen
Berichterstatters
chtern
Dingen
Energiequellen
ly@@
Räume
ares
equity
verteilung
baut
Spitze
geringer
potentially
Ferienwohnung
herz@@
hidden
zeichnung
typischen
Vorsitzender
zeigte
theore@@
negotiate
DN@@
Vordergrund
manual
zunehmende
Karel
coverage
Besonder@@
potenti@@
bs@@
enormen
technologischen
cer
herrlichen
Verkaufs@@
visits
Außenminister
nötigen
Miet@@
coordinate
stattgefunden
Lor@@
gungs@@
IP-@@
Tari@@
ank
Muslim
linken
Einer
fehlen
ausgehen
Widerstand
ausgearbeitet
openness
verursachen
wahr
kümmern
Handlungen
Güter@@
19th
chemische
tigem
frü@@
ails
differenti@@
formul@@
wirkliche
bling
beeinträchtigen
distur@@
VO@@
Edi@@
verbreitet
coal
s-
Bed
institution@@
tus
Symbol
HU
digungen
erstaun@@
assigned
contractual
Unternehmer
Docu@@
Jugoslawien
ysteme
veröffentlichte
fünf@@
belgischen
meals
fifth
erneuerbare
vir@@
Rahmens
MENT
erteilen
pas
Messe@@
genauer
verpflichten
ore@@
ij@@
zielen
ßten
Main@@
Lesen
wirft
infra@@
thi@@
α@@
wendung
Zuständigkeiten
benutz@@
entlichen
geistigen
LA
prison
tedly
rank
event@@
Develop@@
ids
Sicht@@
Angebo@@
expanded
assem@@
insist
Inclu@@
Piebalgs
verbindungen
bequ@@
zahlt
Zielsetzungen
kostenlose
uncertainty
exist@@
mitgeteilt
doppel@@
senior
ermitteln
ität@@
rasche
Mengen
COMM@@
2.5
ghts
Informations-
assu@@
Auflösung
trained
bilität
alternatives
onia
auen
viewing
в
stick
Commerce
Change
Abfälle
mäß@@
arischen
rot@@
verständlich
hielt
hafter
gerechnet
emphasised
gefähr@@
OTHER
merger
standes
expense
dup@@
kurse
Govern@@
eries
Oberfläche
premium
Entwicklung@@
Somalia
Sul@@
regelungen
tolerance
zunehmenden
League
PM
bringung
surplus
geringe
translated
hole
respecting
systematic
contra@@
ansässi@@
shuttle
unentgeltlich
durchgeführten
ly-@@
Schnell@@
Vorgehensweise
Black@@
Lux@@
Lebensqualität
Sz@@
angle
proce@@
nutzt
gels
grund
Bestätigung
Bah@@
Florence
onie
Solana
der-@@
schläge
loses
CD-@@
faire
mehrfach
foto@@
d.@@
mixed
unterstreicht
restrictive
buses
zungen
Terror@@
Saison
Konsultationen
defining
verletz@@
venue
Fleisch
ér@@
unterbreitet
anzeigen
Stock@@
klimati@@
Konflikt@@
DH@@
länger@@
kleinere
klären
verstoßen
believed
Wachstums
sul@@
Belastung
attri@@
BM@@
foster
affordable
modi@@
Sozialpartner
umgehend
Keine
sad
hochwertigen
Betrug
pot@@
Fabri@@
Weil
placing
Ass@@
GEN@@
Einschätzung
Explorer
planen
ě@@
jedenfalls
STR@@
urs@@
Et@@
refused
transp@@
bewirken
verhältnis
ose
ray
p.@@
olle@@
calcul@@
Nord
Hilf@@
remarkable
Berge
commission
befürwortet
modernisation
Imm@@
kunden
Vie@@
garage
Tabelle
gesucht
Sonntag
Zah@@
zo
envisaged
sequ@@
Saddam
Bol@@
jahres@@
Viel@@
bildungs@@
Panoram@@
Erarbeitung
Richter
Woh@@
Az@@
specialized
phe
eben@@
plur@@
menge
Med@@
betre@@
iertes
intensiv
ı@@
assi@@
collapse
Weltwirtschaft
präz@@
erfasst
Assoziations@@
berichte
FF@@
Kommun@@
repeatedly
shilfe
ups
Wirtschaf@@
Fahrer
zweitens
Demokrati@@
resi@@
zweck@@
conciliation
derselben
keits@@
ld@@
Luf@@
Sab@@
lenken
Marco
Inten@@
koh@@
abgegeben
bought
Mig@@
Urlaubs@@
evaluate
Arbeitskräfte
bay
keys
RES@@
failing
genau@@
Suites
llen
Alternativen
Leipzig
Beihilfe@@
peac@@
seemed
landwirtschaftliche
Zusammensetzung
äm@@
meister@@
farms
ho
DI
Digital@@
clarity
Eines
ea
Bücher
Vereinigtes
beschrän@@
studied
ć
punkten
manufactured
Communities
bon
saf@@
compatibility
Jes@@
beschä@@
plas@@
Aktionsplans
Kün@@
etab@@
Rechn@@
orientierte
chairman
weichen
aufgestellt
grafische
simplify
Traditionen
versteht
rek@@
verbesserte
Vorgaben
ious
references
surprised
FI
Benutzer@@
sitzen
Besuchen
alisierungs@@
penalties
menting
Yugoslavia
orientierten
reli@@
zurzeit
stipul@@
ausser@@
Olympic
abor@@
angenehmen
revealed
Performance
tten@@
GVO
hop
spät
beträchtliche
entity
definieren
Telec@@
Parliamentary
arly
Ner@@
izi@@
reichhal@@
GA@@
arts
underlined
Legislativ@@
Großen
Schle@@
prospect
ita@@
Assist@@
verbindung
greif@@
rus@@
diversi@@
Hard@@
Herkunft
aking
agrees
miß@@
gerungen
geograph@@
É@@
organiz@@
momentan
Dresden
Auslegung
ony@@
tains
terung
Terms
Team@@
Beruf@@
hung
trop@@
mals
anz@@
Durchschnitt
exposure
berichtet
matic
age@@
Ziels
Intervention
Lü@@
wind@@
angenehm
zero
widmen
Wör@@
crops
Appartements
Engineering
alog
Nordic
endorsed
Travel
Hab@@
developers
staying
part@@
beeinträchtigt
no-@@
variable
consistency
м
Wh@@
audience
certified
geld
dramatic
berufen
140
Mich@@
enjoys
recycling
machinery
solved
realer
blan@@
ring@@
LICH@@
ratified
Durchführungs@@
snow
Rock
Textil@@
einstimmig
ausstattung
ECH@@
keineswegs
EI
Inspek@@
iron
agu@@
appro@@
kungen
dahin
ал@@
Ja@@
asks
fat@@
permission
mel
zah@@
Ay@@
isters
fin
Zweiten
Equ@@
ehren
violent
occupation
Aussage
Audio@@
Ingenie@@
Privatsphäre
tagen
dieren
Export
Frühjahr
64@@
Konvention
stayed
Händler
new@@
ansprechen
amp
theti@@
sustained
TV@@
zusammenzuarbeiten
Dokumentation
dieselben
ansehen
verfüg@@
Mass@@
Klarheit
Prof
pati@@
gon
quantity
Krieges
umgehen
itu@@
signature
CP
ruppe
necessity
describe
Experi@@
blei@@
denkt
gastronom@@
travellers
Text@@
seconds
Module
finanzierung
liti@@
Kau@@
theatre
Samsung
classical
pru@@
Ferr@@
Osteuropa
thro@@
cross@@
sport@@
elf
bürokrati@@
gor@@
CO2-@@
disp@@
professionelle
hell
ranging
ingu@@
mensch@@
desto
Stri@@
beneficial
viewed
Verfolgung
Fremd@@
charakter@@
tual
Orten
Cou@@
stimulate
roll
Kommunikation@@
NEW
änderung
Bürgerbeauftragten
Existenz
Tampere
colors
Ly@@
Saint-@@
tail@@
Moscow
wonder@@
promising
comprises
Philippe
Gewinne
booked
prof@@
Moldau
Warcraft
buying
teilten
confident
observe
bü@@
Vorbereitungen
ш@@
methode
technique
ähr@@
Fluggesellschaften
Bed@@
IES
withdrawal
gate
Oli@@
Libanon
incentive
Maj@@
erb@@
4-star
Fis@@
tut@@
til
Quell@@
Beschäftigten
Trend
hen@@
trieben
Safe
tackling
clock
alien
Pierre
Sem@@
eda
fertigung
20th
codecision
full-@@
Erhalt
jk
mouse
simultaneously
Jugendliche
Denken
Merkmale
broadband
exten@@
total@@
ot@@
pharmaceutical
attended
calm
Nikon
bruch
arabischen
Typ
Bewusstsein
discount
papers
verbrau@@
Entwick@@
anten@@
trock@@
supplementary
smoking
kostenlosen
Koordin@@
erarbeiten
univers@@
Buil@@
artigen
renoviert
securities
kennt
Zuverlässigkeit
Wohnungen
anne
infrastructures
vermittelt
roof
afford
saal
array
bigger
citizenship
Generalsekretär
gewöhnlich
org@@
Big
umfassen@@
Netzwerk@@
residential
declare
Sto@@
umfangreichen
Sir
ethical
SK
GA
harm
sth@@
publ@@
publishing
indirect
lossen
avi@@
academic
hills
indoor
Ve@@
Prävention
fire@@
Sitzungen
schir@@
anpassen
Netzes
süd@@
wooden
exemption
gehörigen
Aktualisierung
Sustainable
logo
gebunden
redu@@
io
presidential
Solar@@
airline
ized
fare
Patri@@
dings
bungen
konsequent
Jesus
mie@@
wirkungen
moreover
deaths
tivi@@
isto@@
istischer
Out
Diensten
migrants
coherence
Gibt
sig@@
dimensions
Gemeinschaftsrecht
Stur@@
Nutzungs@@
fahrzeugen
Internetzugang
Key
genuinely
eingebracht
verwaltet
39@@
Nachbarschaftspolitik
suche
fis@@
Jewish
simil@@
less@@
Wen@@
Sieg
450
HER@@
invo@@
vertraut
ened
medizinischen
tu
Fremdenverkehr
intelli@@
macroeconomic
Presidents
Tob@@
iling
Account
berger
util@@
Jahresbericht
Fes@@
Directives
neighbourhood
entstand
Strände
Samstag
gericht@@
17.@@
Europe@@
Peti@@
preferred
dial
interim
ernannt
apparent
rägern
the-@@
exceed
TA@@
Palestinians
Unterkünfte
flat@@
wife
Ergänzung
Angabe
Erweiterungs@@
ergi@@
dring@@
lock@@
EMU
Sports
Dal@@
birds
ateg@@
ahl
Vice
Vogel@@
CM@@
Vorfeld
Geträn@@
schnitt
aben
imposing
Wit@@
shortcomings
Argument
observation
technisch
ool
Einzelnen
ail
nehme
oud
Wasch@@
Publikum
eme
yal
entities
Bla@@
encourages
drängt
Mani@@
Marktwirtschaft
biological
portra@@
beantwortet
Konzepte
Chin@@
Ruf
entsch@@
alize
terminal
credi@@
hundert
att
competences
jüng@@
Klassi@@
ad-@@
strike
motorway
stung
RAT
escape
crow@@
Problematik
FÜR
Schie@@
entfernen
robust
mol@@
urity
Cock@@
EST
neutral
einführen
bewußt
kombin@@
verwiesen
Fischer@@
iring
Futter@@
ENT
Def@@
ritte
Beschlusses
verwirklichen
Subject
honest
innere
Erlebnis
stützt
thal@@
Konzentration
Fünf@@
contextual
Assoziierungs@@
gical
Verluste
organisierte
Mann@@
Inhalten
asts
bann@@
mali@@
reflection
Sound@@
Search
würfe
Poker@@
Tauch@@
adjusted
angeb@@
foremost
Philosophie
glück@@
14.@@
Ima@@
orienti@@
Erkenntnisse
schar@@
cancellation
Urspr@@
Norm@@
perpet@@
enjoying
branch
Demokraten
Erzeuger
Stan@@
68@@
Ford
feh@@
requiring
autom@@
sprech@@
vals
Wohnzimmer
arranged
cious
sätzen
onds
Bug@@
commun@@
Servic@@
mün@@
fragt
Besitz@@
Versand@@
Prag
aled
connec@@
fahrts@@
Antri@@
Partnerschafts@@
16.@@
Spezialitäten
Mir@@
geklärt
tschaft
dus
woo@@
stones
Güter
Plug@@
Pilot@@
Scotland
LAN@@
400@@
remo@@
ft-@@
Georgi@@
Einfuhren
Lud@@
purchasing
Bevor
enni@@
höchst
Territ@@
expenses
15.@@
Max
rufe
würdigen
false
Jahr@@
Repräsent@@
erweisen
Stabilisierungs-
formuliert
feste
licence
elev@@
Ali@@
Os@@
SP
adult
eted
borne
officially
actor
Europäisches
chairs
Software-@@
glie@@
ungsweise
religi@@
flexibel
garanti@@
schreit@@
foreseen
Basis@@
Zusammenschluss
Imp@@
wirtschafts@@
externe
mines
Lieferanten
Spre@@
komplexen
interven@@
arrest
ebo@@
ul
raft
ander
tigh@@
Offenheit
suited
string
foot@@
besie@@
Times
autor@@
Lehrer
FC
maybe
Dok
füllt
Arbeitnehmer@@
Feu@@
acquire
kit@@
reviewed
NICHT
omen
agt
Folgendes
Sun
sample
Erwachsene
dity
12.00
Mitgliedstaats
begrenzte
Metro
erinnen
paths
eo@@
inquiries
dep@@
Wall
Direk@@
Argentina
Landwirtschafts@@
vorge@@
intentions
azz@@
zweit@@
ede
Wednesday
sar@@
Read
Still@@
berührt
günstig
explicitly
edited
ket@@
urg@@
schedule
Krisen
1957
streben
legislat@@
Ps
Datenschutz
justify
dein
ATE
modify
biologischen
hervorragend
maj@@
existieren
mäßige
derart
concentr@@
scar@@
clothing
Immobilien
Ticket
layout
terer
continuously
dateien
mut
ageing
vertrauen
Hen@@
digten
photograph@@
entscheidet
nächster
Gebäuden
nel
gefährlich
ESF
tension
Barri@@
bewus@@
Wall@@
Bildern
charm
qualifizierte
calendar
bene
früh
tribute
optional
indicates
Round
Spannungen
mengen
runde
ent-@@
busy
missed
Francisco
Können
Mehrwert
adventure
akan
Kontin@@
affili@@
telefonisch
berühmte
order@@
lück@@
qui
Übersicht
lea@@
Finde
gegeb@@
viert
Sn@@
position@@
Riviera
Make
hilfreich
Schwerpunkte
cement
bezieh@@
gefährden
Allah
parlamentarischen
PK@@
Hot@@
RT@@
Feuer@@
tangible
versicherung
instru@@
prinzip
Schau@@
medieval
Ursprung
sey
doc@@
Fak@@
Pon@@
Nicht-@@
Environmental
engagement
visi@@
hinzugefügt
ees
consistently
ausgewählten
nicht-@@
distinction
komplexe
jek@@
verordnung
kombiniert
GMOs
fangen
harmonised
fantas@@
gieren
Objekte
poli@@
oration
Milan
portugiesischen
Genau
performing
purchased
refuse
Ratschlag
gefühl
Himmel
deserves
sovereign
erfolgte
Wind
Katalog
smus
logistics
Edel@@
Building
plug@@
Republi@@
Sens@@
Friedens
loaded
mie
das@@
zustande
ffs
ña
dual
Kapit@@
clicking
Einfl@@
inneren
Doppelzimmer
assungen
.net
Blair
maps
ino@@
ROM
estimates
Heimat
edy
einzuleiten
mein@@
Aufzug
hard@@
Steuerzahler
authorized
jahr@@
Web-@@
Kreu@@
Anmerkungen
quet
Free@@
beiträgt
andal@@
sierte
becken
globaler
nik
Nehmen
Wissens@@
professionellen
Hall@@
Zeu@@
russische
gerung
erläutert
secondly
regimes
beurteilen
signals
tung@@
sens@@
awa@@
Mario
rus
authors
acking
Verein@@
erlangen
Bun@@
Bilanz
superb
spots
wertung
patterns
wirklichen
still@@
B5-0@@
Case
duction
bearbeiten
Gottes
Ehre
question@@
bud@@
depth
platforms
taus@@
ution
angebotenen
dt
Versprechen
beseitigt
IR
hang
ë@@
investiert
iness
unanimously
Einschränkungen
mäßigen
RD
ight
Gegner
einhalten
bewegt
haus@@
destinations
Betroffenen
assessments
Kommissionsvorschlag
integral
posted
motivi@@
nets
vention@@
basierten
Caribbean
mechanical
responses
ßte
Work@@
importantly
demonstrates
closing
complement
Autob@@
wirkungs@@
conventions
derjenigen
Cin@@
measurement
möglichkeit
abgeben
suspended
Regen@@
einzuhalten
verliehen
tiker
ärmsten
Comple@@
stresses
promo@@
Funktion@@
Nation
Beijing
gravier@@
arte
koordin@@
poker
Hardware
eindeutige
fru@@
Gay
High-@@
Ursache
ritten
complaint
reinforced
empty
erzeugnisse
Darin
entri@@
unterstütz@@
rated
shareholders
tas
meaningfully
gend@@
KM@@
whe@@
EU-Vorschriften
geltend
fulfilled
satzes
Politik@@
urer
Net
Kommentare
Part
brands
Arena
quest
Entwickler
inspiri@@
Kohlen@@
Otherwise
porting
Wälder
MP3
Heimat@@
nur@@
gains
Rek@@
ehe
Erwägung
Wichtigkeit
ARE
Effekt
Kolle@@
Monitoring
ital@@
30-@@
wies@@
vez
Andre@@
Empire
transformation
tags
rela@@
Ausgleich
wünscht
müsse
Governments
Mini@@
vereinbarung
consulted
währ@@
pays
drinking
Brücke
trains
Go
logic
weitaus
qualit@@
übt
Arbeitsbedingungen
patents
restrict
greift
Ander@@
emerged
cus
Aussagen
comb@@
zips
contributes
SQL
berge
feder@@
gewähr@@
Solche
prü@@
cope
confirms
baby
stür@@
Vers@@
adaptation
folglich
dges
erkunden
gkeit
läng@@
hist@@
Fakten
Perspektiven
blieb
counts
geniessen
Erleichterung
hä@@
William
Run@@
ergeb@@
ESS
nachhaltig
zenden
de.htm
.europa.eu
perio@@
Wett@@
RA
Berich@@
aer@@
prohibited
Folge@@
istry
konzep@@
threatened
moments
luxuri@@
fikation
felder
evi@@
Klage
ure@@
ο@@
Listings
Hör@@
schle@@
Lager
Ereignis
Vermeidung
komm@@
kritischen
Firefox
Überwachungs@@
Palma
stabilität
geachtet
Haushalt@@
tragic
Gerichten
diving
Sex@@
konzept
1.1
ffe
preserved
Finanzdienstleistungen
integrieren
utes
Km
Monte
beider
Annehmlichkeiten
Erschein@@
LT
Kein
inquiry
ök@@
Coun@@
bten
bewähr@@
recession
SER@@
merken
ücke
whenever
tness
Schei@@
Energiepolitik
schten
Series
existi@@
Original@@
advise
supervisory
Königreichs
hersteller
Order
verstehe
verzichten
befürworten
examining
gehörigkeit
abzielen
basieren
TER
ektor
Bauern
ne-@@
Slovak
MAN@@
Ce@@
Noti@@
aktion
Europäischer
auswählen
height
prevented
cep@@
zugän@@
Quark
GPS
ots
Einwander@@
älter
olls
kontextuellen
spective
Schicksal
blind
Extre@@
certificate
Ausgangs@@
lette
About
beinahe
beweisen
dacht
Rede@@
nete
unions
entdeckst
gestartet
krieg@@
ium
Werkzeug
Trag@@
accuracy
liegende
ungst@@
229-5@@
Autonom@@
Until
ensive
ruhige
speeches
peri@@
ckets
Studien@@
replacement
prüfung
Nich@@
anerkennen
vest@@
donors
turns
ción
bab@@
respektieren
Bureau
err@@
nachzu@@
verstärkten
Zus@@
Myanmar
ht
Las@@
histor@@
Beschluss@@
getrennt
Ausschüsse
Mitt@@
characteristic
neo@@
bird
yo
holders
projek@@
Eh@@
recall
bewäl@@
zione
ständiges
Diesen
unding
Wäh@@
Mög@@
IER@@
fä@@
Verletzungen
ffene
abe
berat@@
abgesehen
Aufträge
größ@@
ariat
Appartement
Technologies
Fire@@
Fast
sorry
alike
Respon@@
aufwand
quantitative
heavily
Eco@@
herrschen
falsche
Daniel
Gewährung
Gesellschafts@@
grammatically
listening
Kopf@@
contextually
zivil@@
Energies@@
ensured
arom@@
ket
behauptet
schreibt
Bonn
kü@@
returns
frequent
ausgewo@@
pers@@
hinzufugen
ressourcen
Millennium
boasts
ranken
wertvolle
gl
friend@@
stärkeren
destroy
ausgewogenen
kontextuell
infl@@
debating
Vene@@
grammatisch
bewegung
tragedy
Ausblick
Strategi@@
Schreib@@
Impf@@
ku
fam@@
typically
Soldaten
davor
4303
gangen
tan
train@@
för@@
themes
alp@@
inter-@@
Stabilisation
EFTA
umso
strategien
grade
beispiel@@
Burg
fascinating
terrible
insul@@
ision
Aussichten
schwan@@
verhandlungen
Economy
einstellen
Düsseldorf
Arts
kunden@@
halb@@
defin@@
lowest
Weltbank
Schlusselwort
Zusch@@
up-to-date
Indonesia
Schlusselphrase
abrufbar
aufgerufen
aufgezahlt
verurteilen
rey
drängen
Zusagen
Kredi@@
Fahrzeug@@
durchzusetzen
Labor@@
betreffende
Slo@@
zell@@
Proz@@
differ@@
präzise
argue
H-@@
patri@@
Schulz
Transaktionen
integri@@
iss
drückt
Distribution
Cologne
abhängi@@
Priv@@
geehrte
pursuant
kommerziellen
Sä@@
Tä@@
monitored
uta
pling
expanding
wherever
iser
1970
winners
Tagungen
kle@@
Armuts@@
ensu@@
attract
lem
glichkeit
å
Weltkrieg
Pur@@
verarbeitung
verse
wissen@@
lap@@
Wie@@
SEN@@
pack
forgotten
vertreter
spüren
strafrecht@@
Finanzmärkte
claimed
Alps
ursprüngliche
-und
Gleichbehandlung
Verträgen
Maritime
capacities
Libya
kleineren
grand
jects
Cop@@
Internation@@
Zerstörung
по@@
gelegene
Meister@@
experi@@
Meinungen
65@@
frau@@
begrüßte
streng@@
Lar@@
Subventionen
feedback
undermine
erleb@@
solch
strengen
lively
198@@
Rassismus
Telekommunikation
dieselbe
Autor
Venedig
illu@@
transposition
cio
gefährliche
Erfol@@
brie@@
chat
endgültig
sem
ailing
blicken
Philipp@@
Deutsch@@
Program
TU@@
Renten@@
Speis@@
betonte
Gesprächen
deployment
deutlichen
funktionen
treas@@
95@@
Patent
Immer
By@@
Bestell@@
rants
belongs
epide@@
K-@@
graph
Kil@@
stopped
winner
SL
wand
folder
Tunisia
schlüssel@@
gebäude
schalten
1945
2000-@@
Café
gesonder@@
Organen
Generaldirektion
supple@@
bezogenen
kostengünsti@@
Champi@@
mediterran@@
continuation
örtlichen
leichte
Aufenthalts@@
Kling@@
Val
ständi@@
moderner
Bestände
vorgehen
History
Spaziergang
gesundheit@@
Boot
gift
Rechtsrahmen
inspec@@
outlined
agen
ratifiziert
olf
22@@
änder@@
Rahmenprogramm
Digit@@
bedenken
erwähnten
Modul
ith
verhältn@@
Werkzeuge
premises
konvention@@
eintreten
foo@@
Für@@
HD
beabsich@@
Wallström
vermutlich
breit
eingeladen
sake
Sing@@
Clubs
uti@@
hofft
sand@@
intelligence
t.@@
Taten
Menschheit
nier
Erzeugnissen
wski
ätz@@
Konferenzen
Similarly
Storage
ancy
Modern
sorge
20.@@
Rechner
Minderheit
geis@@
Balkan@@
insofern
machten
fa
condi@@
Zins@@
ermittelt
arbeiter
Französisch
bezogen
deemed
Vermarktung
soul
geräten
elegante
dged
Investition@@
Communications
Köln
Weine
seln
aket
deri@@
Zwangs@@
iPod
Non-@@
Rezession
innovations
Ausbeutung
IL
discipline
ints
Rubrik
druckt
Sozialpolitik
xe
pursuing
voters
horse
porte@@
löschen
Garten@@
chner
Instrumenten
tempor@@
Kuba
GM
Volkspartei
iti
reconciliation
Formulierung
Brau@@
Termin
wissenschaften
condemn
pending
Gremien
Insel@@
Vent@@
Rennen
expressly
angen
Baby@@
Einvernehmen
tropical
Greens
IBM
Stau@@
closure
Bay@@
featuring
angewiesen
Sav@@
VII
Wachstum@@
tradition@@
Missbrauch
eigh@@
Learning
kompliziert
agen@@
overla@@
sender
delete
Malaysia
partner@@
behin@@
wel
hospital
splendid
Schiffs@@
Mobiltelef@@
deserve
phys@@
Zimbabwe
ur-@@
ghter
gelt
wesens
Stamm@@
fün@@
atemberau@@
Weiterhin
Index
Mittel-
Kit@@
cookies
Event
ð@@
graphie
privileged
Quoten
aggres@@
Weiterbildung
Fahrzeug
interactive
Branchen
fangs
thumbnail
Felder
erzielte
nah
perspectives
skilled
Mehrwertsteuer
answered
facilitating
derartigen
designer
wendungen
circulation
align@@
Word@@
Referendum
sicherer
Phili@@
zwischen@@
vie@@
Vertriebs@@
spartner@@
projekten
Konzern@@
gewachsen
kit
TP
überrascht
declarations
Konsolidierung
Modus
Uns
plate
bindung
tis@@
Fisch
Anonymous
slau@@
Sekunden
hes
fizi@@
estimate
hood
chose
pro-@@
Func@@
announce
provo@@
stücke
ambition
moves
Lager@@
Stütz@@
multilateralen
derungen
evolution
Organization
demographic
Domini@@
euro@@
bott@@
sech@@
öse
zehn@@
Schalt@@
£
acknowledged
starkes
wöch@@
wirksamer
teilzunehmen
Co-@@
israelischen
Genehmig@@
Simp@@
Verteidigungspolitik
Moder@@
ags
thir@@
pattern
Schil@@
monu@@
ados
Berlin@@
ernsthafte
Hände
occupied
veröffentlichten
Anbindung
sierung
Menü@@
Contin@@
kurzer
poll@@
Investition
bevorstehenden
wages
akes
läufe
unerlässlich
accessories
berto
instal@@
ample
Laden
fang@@
derived
Ernennung
cation
banken
Erbe
bathing
stimmung
fro@@
digit@@
Promo@@
Sei@@
höchster
dog
workshops
æ@@
etzt
receives
Mischung
fizierungs@@
NA@@
Kämpf@@
18.@@
discre@@
bug
frist
CP@@
neh@@
Bit@@
Seele
Unterlagen
Tam@@
ja@@
virtu@@
carte
dium
enthusi@@
Tickets
Unsicherheit
Getränke
beantragen
größerer
Samm@@
react
Plätze
regelmäßigen
Ansprechpartner
religiösen
Foot@@
Terroristen
Wat@@
chem
rad@@
Opinion
eure
eter@@
här@@
Tech
rix
instantly
potenziellen
voran
pain
vierten
Flü@@
Außenbeziehungen
völ@@
rac@@
Gewinn
controlling
confidential
GER@@
facto
BIL@@
wahl
grundlegender
Bürokratie
OL
Filter
analyses
basically
ground@@
essor
Master@@
Review
flying
foods
schenken
Istanbul
gehabt
WHO
GUE
Bestellungen
earn
erfolg@@
ball@@
sheets
zellen
ат@@
Trends
Kreativität
Parlamentar@@
strenge
mentiert
Lap@@
Scha@@
einiges
langsam@@
bür@@
benannt
uten
slopes
meantime
ausgestattete
Nichtraucherzimmer
Formul@@
verarbeitet
Konvergenz
vereinfachen
zip@@
eve
gabe@@
after@@
händler
öl
Versuche
Ideal
15-@@
nachzukommen
jeglicher
specifications
nos
horizont@@
RON@@
Library
Gö@@
Madeira
ideally
calculated
Schwarz@@
polic@@
Statisti@@
Downlo@@
vierte
PRESS
gebung
Pub@@
yn
refugee
eingeschränkt
encryp@@
enheit
erung@@
centers
einzubeziehen
empfin@@
ausgesch@@
teuer
experiencing
dent@@
excellence
Political
resul@@
Komit@@
Ursprungs@@
Beratungs@@
interess@@
Gute
Village
Standpunkte
rischen
Kurz
creativity
ökonom@@
Tradi@@
Wertpapier@@
Perf@@
Currently
bereitzustellen
inischen
gemütliche
detaillierte
custom
IK
Ran@@
rechtfertigen
lowing
Reit@@
gehe
gesetzte
ärer
departments
220
realen
lok@@
retten
ц@@
nov@@
plant@@
fter
Bundesrepublik
kapazität
ungarischen
Umstellung
URL
GT@@
ließ@@
ausgebaut
adequately
Bergen
Super
Zut@@
Innerhalb
rea
conditional
Auflagen
Natural
Regi@@
unzureichend
Händen
Kyoto-@@
Anwendungsbereich
Legi@@
nieren
dauern
begünsti@@
beneficiaries
Andreas
Copyright
tons
Halle
decre@@
erstens
isierten
Set@@
dasselbe
Basi@@
streng
tera
trags@@
dic
Ros@@
plane
Dri@@
quelle
sing@@
ICT
desktop
Katastrophen
Tourismus@@
ih@@
afraid
mature
debated
concentrated
Reinigung
Block@@
jeop@@
Task
Olymp@@
Analysen
Menschenrechtsverletzungen
Rac@@
unterscheidet
vic@@
fix@@
Empfänger
schwieriger
aufgaben
33@@
eping
Seen
KDE
specially
IONS
verl@@
stoß
inci@@
andal
CF@@
Fall@@
Transpar@@
pum@@
vorbe@@
pair
gradual
leidet
Berechnung
Nachmittag
wohnt
gigen
Vertreters
pfe
spolitiken
aufweisen
cz@@
Ball@@
behavior
FIN@@
Updates
Clinton
compar@@
conduc@@
Euro-Mediterranean
ühr@@
mobili@@
Key@@
Maß@@
vorrangig
eur
nobody
embra@@
soldiers
knew
beizu@@
rul@@
eib.org
EUROP@@
Bauern@@
schaftlichen
gefasst
perc@@
Amtszeit
richt@@
neten
sitzung
Fußball@@
Kel@@
decentr@@
elderly
TION
pressed
split
Spor@@
nötige
Impulse
kontinuierlich
angel@@
vereint
kanische
modes
Amerikas
ökologische
govern@@
Nature
rice
tion-@@
tips
Gesicht
wise
station@@
intervene
irische
legten
Metall@@
Außengrenzen
Ok@@
mining
Young
spare
360
Erhebung
Spra@@
band@@
excursions
ströme
lans
Schö@@
California
lit
21.@@
tent@@
utt@@
1979
genetic
convert
bezeichnen
französ@@
quantities
Cit@@
investing
elabor@@
ennt
realisiert
zulässig
elektron@@
laying
fähiger
raises
zwanzig
entran@@
voneinander
width
Ot@@
od
esen@@
Arbeitslosen@@
Zusammen
Empfang
caught
treaties
sunny
tone
aufgehoben
ignore
ethnischen
Dou@@
Wünschen
Conc@@
tioned
elemente
organize
tisches
cancelled
Caf@@
Experience
genießt
konstruktive
Original
RAT@@
E-Mail-Adresse
teure
revenues
compli@@
Tempo
Physi@@
grav@@
Migrations@@
umfassendes
catalogue
demokratischer
38@@
BL@@
unternehmer@@
adjust
Augen@@
Pflanzen@@
whatsoever
einzurichten
Öff@@
aiming
Versorgungs@@
präsen@@
ie-@@
städ@@
settled
Integrations@@
unterbrochen
eigentliche
istri@@
mehrerer
Products
Illu@@
Merk@@
bestimmtes
niedriger
ungeh@@
group@@
entscheidungen
rose
Limited
Beau@@
forderten
kräften
Lun@@
EU-Recht
VON
stechnologien
stens
wheel
Dienstleistung
key@@
Drei
Stahl
schlechte
direk@@
mon
Publ@@
A4-0@@
Reser@@
Hochschulen
1984
dens@@
einnehmen
äufe
Auth@@
küste
precious
Kräften
Summe
Fans
Ank@@
Gulf
Past@@
Festplatte
erhöh@@
geteilt
Karl
headquarters
3rd
klen
worrying
Gesundheit@@
ally-@@
hne
Bek@@
Portu@@
gaining
mid
dauerhafte
willigen
cons
drafting
deu@@
registri@@
chtigen
veness
terror@@
behindern
flag
C5-0@@
formular
Customs
Bahn
monuments
energ@@
Beit@@
Techni@@
nä@@
mail@@
Everything
ahn
partei@@
WORD
erreichte
Agreements
Neighbourhood
enfor@@
klär@@
TV-@@
literature
Frieden@@
BER
stattung
lighting
Venezuela
proximity
arbeitungs@@
wirksam@@
TF@@
ältere
einst
constraints
durchschnittlich
designated
gefährlichen
ziehung
Rhein@@
relaxed
Audio
Consul@@
it-@@
audiovisual
assessing
tivität
typisch
Einwanderer
Verstoß
newspaper
Rechtssicherheit
emerge
delivering
brut@@
Itali@@
pic@@
umb@@
Call
accountability
struk@@
hosts
90@@
stops
Gewinner
HD@@
Direktor
drives
aktivitäten
exhibitions
care@@
Wales
bereitstellen
aring
atten
ε@@
Anwesenheit
specialised
profi@@
Kaz@@
Lasten
BAR@@
chief
beschreibt
begrün@@
Ferienwohnungen
verkün@@
basierte
V.
Vorgän@@
concludes
cum@@
summary
URE
Santer
Seri@@
glaubt
observations
Gut
produkt
ferenzen
intense
plätzen
Leb@@
Bisher
occurs
Côte
zin
Solutions
äder
Fair@@
langes
städtischen
MIT@@
herum
measuring
Kongo
fold
streaming
Iraqi
gewinnt
tot@@
verbot
Soci@@
consequently
Which
assist@@
specify
2,5
fertigt
zur@@
reiben
betrug
krieg
beschäf@@
anna
bahnen
stil
rational
risen
Future
investitionen
rigi@@
industrielle
Gonz@@
bag
laufende
bischen
pper
Zurich
KG
enswerte
unlikely
orien
Engl@@
Ausfuhr@@
freu@@
schaff@@
Local
Info@@
beeinflusst
sculp@@
Import@@
Kreuz@@
Tö@@
noon
tender
UT
Gebir@@
Four
preferences
civil@@
Konflikts
carriers
Andr@@
Beruf
Initi@@
osteuropäischen
seekers
Nar@@
ASEAN
Lamy
zeitige
eting
S.A.
Mid@@
Iranian
alog@@
precision
Start@@
Pel@@
berg@@
arrange
Muster
publicly
OC@@
nia
indication
humanity
19.@@
reib@@
Genuss
Conditions
vorsit@@
gebau@@
abschließend
Erste
arin
s.com
erwar@@
zende
bid
Qualifikationen
safeguards
heb@@
lah
Cour@@
ablehnen
ь
¶
Mittwoch
landschaft
Ambi@@
EWR
Batter@@
EU-Bürger
Industriel@@
gon@@
landes
gelingen
cham@@
Hung@@
habt
fic
tausend
Papier@@
Lanka
regulate
gegenseitig
drück@@
Intel
Van@@
kritische
enstein
implies
painting
Tunesien
einzugehen
simplified
womit
Steu@@
gesammelt
rol
klarer
nutzung
wirkung
Klin@@
etes
ired
throw
ел@@
spiegelt
Dritt@@
alled
Rue
Human@@
projec@@
Bewohner
Follow
MIN@@
Rande
fitted
unusual
Catherine
Fristen
upcoming
Diszipl@@
Logik
teilungen
list@@
challenging
öffnet
Radi@@
rolling
Peru
Konkurrenz
Aktien@@
Jag@@
Sard@@
high@@
kter
bestände
verzö@@
ORT
confidentiality
Treff@@
investigate
wenigsten
bevölkerung
WEL@@
wahre
Produzenten
geneti@@
SDL
Enter@@
kontin@@
Iron@@
gelernt
unch
forums
Roth@@
cameras
erreich@@
assured
griff
gemütlichen
Bühne
lays
Reservi@@
passion
Gipfels
itze
philosoph@@
bilaterale
Sac@@
verantwor@@
splat@@
Spa@@
samkeit
Energieversorgung
Agricultural
Städ@@
Bür@@
konsolidi@@
ermutigen
chtete
guard
autonom@@
ausdrück@@
maßgeb@@
finanziell
bor
quali@@
heutzutage
tro
angehören
Spielraum
generous
Vertragsparteien
überwiegend
Mitarbeit@@
Menschenrechten
С@@
hunder@@
Service@@
mento
Bett@@
abolition
stein@@
Kais@@
vegetables
discriminatory
Quad@@
antwor@@
Articles
Präsentation
kapital@@
erlei
Produ@@
act@@
underp@@
à@@
gesenkt
tened
camps
wars
Bill
Vergabe
eigentlichen
eva
meldungen
angehen
breaking
riff
5.000
radio@@
Einwände
stream@@
Vorsitzende
tape
Liberalen
beantragt
wärts
junger
BS
Mercosur
Direc@@
japanischen
Catal@@
OH@@
powered
schungen
Zinsen
Zahn@@
arri@@
Danube
Adressen
konzipiert
ova
underline
preventive
Virus
catering
Artikels
finanzieller
SI
isa
Frequ@@
displaced
weisungen
measured
Fair
Zimmerbeschreibung
underlines
Hinsichtlich
dener
meldung
Behinderungen
äume
volumen
Parties
ava
Antoine
exceptions
lining
rescue
PN@@
recover
ehrlich
abstra@@
ließt
converted
struction
Phänomen
Medikamente
erische
Marine
gebe
transatlantic
slowly
decrease
gross@@
Krank@@
ür
sexuellen
desirable
Bewirtschaftung
herrschenden
complementary
Moh@@
tica
übergreif@@
waff@@
Arti@@
graf@@
mistakes
Game
prestigious
Schuld
chender
stran@@
eled
EURO@@
vis
unknown
observers
vine
eleganten
removing
qualitative
book@@
trouble
Pad@@
schneiden
brenn@@
bereitung
Reaktionen
tower
gesell@@
transfer@@
movies
platten
Geräten
sailing
ruhe
sied@@
Subsidiarität
Das@@
Histor@@
atz@@
tier
koordiniert
fting
Anpassungen
qualifizierten
prote@@
Mar
Reak@@
'd
scenario
VE
Origin@@
monthly
participated
ima
permits
Ful@@
begrenzten
biologische
ausführlich
einzig
dustrie
identifying
complexity
diesbezüglichen
kos
ml
Stadium
Unterstütz@@
Glas
empfängt
absurd
rub@@
Maxim@@
Angriffe
Theorie
fem@@
Cultural
chester
spielte
Beschränkung
betri@@
beschei@@
Eingliederung
novel
Schiffen
decent
negativ
aussehen
large-scale
explains
GP
consisting
Betrifft
IF
Auswahl@@
gericht
Informationsaustausch
esa
griffe
Dest@@
anticip@@
recognises
workshop
zimmern
kampf
Mitwirkung
situ@@
architectural
G20
mix@@
226
avoided
bone
terrasse
gewünschte
PROCESSED
ause
coordin@@
backed
breaks
zugs@@
interessanten
king@@
investig@@
Gewerkschaften
Holland
Haushaltsplans
éri@@
WA@@
deleg@@
bereichs
betreiber
wunderschöne
gesorgt
demokratisch
thes@@
Fed
Augu@@
Lehren
eingebunden
cho
administrations
well-being
Umsatz
boxes
gestütz@@
rass@@
klausel
kap@@
Heil@@
Visit
arity
angenehme
tto
tering
adverse
renomm@@
oth@@
determin@@
urges
placement
warmly
Einschränkung
Mun@@
қ@@
internation@@
Flexi@@
Gil@@
volunte@@
eth
inning
Neues
sektor@@
Schad@@
verni@@
chtungs@@
kr@@
cosme@@
01.@@
vacc@@
prüf@@
fehler@@
ira
handled
vielfältigen
mini
Cham@@
kontroll@@
tiefe
Berei@@
griechische
belonging
Erfolgs@@
Ski
problemlos
ida
fines
reaffir@@
Supp@@
Frühstücks@@
ventions@@
sectoral
grundlage
Dok@@
downloaded
elen
establishes
photographs
Vermögens@@
sensor
Cris@@
vergabe
admit
MID@@
й@@
führungen
harbour
bureaucracy
degrees
Funktionsweise
entrepreneurs
diox@@
vorbehalten
differ
emin@@
governed
dollars
Director@@
eignen
quoten
sämtlichen
Bewertungen
rung
Ocean
gerichtete
Pom@@
versicherungs@@
imbalances
glei@@
ausbildung
describes
ten-@@
Wesen
ature
Byrne
realize
Vereinigung
emm@@
erworben
dauerhaften
äußerster
orientiert
excess
gesellschaftliche
Techniken
qual@@
Zurück@@
Umfrage
gau
konsequ@@
District
Wichtig
racism
ende@@
kurzfristig
verbesser@@
monat@@
copies
Geschäften
lässig@@
Massage
Unabhängi@@
Verwal@@
militär@@
Anfän@@
tauchen
Saudi
befrie@@
Volk@@
warming
invitation
Wolfgang
2000-2006
Gali@@
hat@@
agent
Left
brech@@
etz
Bridge
bedienen
ń@@
editor
terrorists
Saal
Гј@@
transmitted
tform
subscribe
Route
ftung
Spir@@
HP
Gebühr
pläne
zzo
bie@@
haltenen
Verschie@@
provin@@
minimal
top-@@
Credit
bte
friedlichen
jour@@
Empf@@
Mehrere
Krieg@@
Verzögerungen
ï@@
überzeu@@
kil@@
asion
rücken
parameter
mono@@
verabschiedete
adju@@
nem
characterised
emis@@
auseinander@@
dnis
Verantwortlichen
tta
Übersch@@
allo@@
tec
EAS@@
manage@@
POL@@
Vermittlung
demonstration
fischen
ret
angen@@
racy
gipfel
happ@@
lov@@
versammlung
Prote@@
Ref
ield
erklär@@
unification
Premi@@
öhnung
passieren
Leistungsfähigkeit
Partners
größe
refle@@
hesitate
erläutern
Alltag
proliferation
respektiert
europa@@
tough
Schnittstelle
verträge
Öst@@
Aktien
Texti@@
versehene
Ähn@@
spi@@
erial
concerts
Gui@@
spektakul@@
righ@@
cians
Goo@@
road@@
Grundfreiheiten
analysiert
sw@@
maximale
3000
Beträge
abi@@
iten@@
jet@@
promenade
diagno@@
Datei@@
cip@@
may@@
Beförderung
Select
eous
versehen
Visum@@
poin@@
registriert
tailored
Mode
Lek@@
compare
Tarifa
Gewer@@
isolated
deplo@@
Sky
Gerä@@
assoziierten
samm@@
Strasse
teter
wen
ausgewogene
Quartal
Rot@@
bill
Randlage
dänischen
komfortablen
fisch@@
dras@@
förm@@
Lad@@
scrutiny
RI@@
Gesundheitswesen
continental
Robo@@
Krist@@
household
archive
aan
automatische
tec@@
Bulgarian
displays
EIT@@
unterliegt
autonomy
toilet
geführten
accommodate
Abgeordneter
demokrati@@
conjunction
sandy
denz
theater
interventions
Reich
Akteuren
Mart@@
außerord@@
adjustments
unprecedented
sty
Stabilisierung
jü@@
acceler@@
periode
acci@@
Secretary-General
compens@@
Lul@@
Israelis
9001
Arbeitsprogramm
incorporate
denti@@
Wald
gleicher
Ze@@
70@@
jeweilige
proo@@
vergröß@@
untereinander
Gemeinschaftsebene
traum
develops
Infek@@
coins
decor@@
angelegt
antrag
dors
CFSP
gebraucht
herunter@@
normale
mmen
keeps
En
wra@@
Telek@@
bedien@@
isse@@
rem
ingham
angeschlossen
launching
CO2-Emissionen
Sicherheits-
Euroraum
tener
protest
heated
vereinfacht
linguistic
Boh@@
kommende
lication
Vertreterin
verständnis
en.@@
exploit
begeister@@
interaction
Sant
Her
Ann@@
subscri@@
fahrten
verband
geschafft
favourite
revolution@@
Gespräch
inland
branches
verwalten
margin
Var@@
denselben
fikationen
Schätzungen
Borg
ohnehin
Zug@@
Beste
correction
fiel
niedrig
stärkt
List
analysieren
reverse
associ@@
Türen
Wortlaut
apparently
bedauerlich
mitzu@@
Angel@@
Provi@@
Jordan
verschie@@
Humanitarian
Poten@@
konstruktiven
lovers
tage@@
announcement
crossing
air-@@
partially
Tower
connecting
übertrag@@
appreciated
Komponente
Profil
lean
Wert@@
antrags
chest@@
rän@@
icon
kore@@
Hunder@@
teln
testi@@
rant
stattdessen
Entwicklungspolitik
frucht@@
00-@@
Ré@@
Ferrero-Waldner
hef@@
bewiesen
capture
shor@@
Inhaber
enters
seaf@@
Plenar@@
Initiativ@@
grei@@
simul@@
prior@@
reduces
reimbur@@
versetzt
Libyen
invested
Forscher
Plans
mien
Nichtregierungsorganisationen
Aff@@
Auff@@
Kn@@
realistisch
catastro@@
Ero@@
.ch
komplex
erheb@@
alizing
handed
schein@@
Minibar
т
zeigten
Gebietskörperschaften
Budgetary
cheaper
gerechten
enh@@
Hektar
announ@@
bewahrt
ungeachtet
twin
bak@@
besseres
22.@@
restoration
ECO@@
self
Folglich
degra@@
copying
belt
aded
sagten
effizi@@
stays
Defizite
blin@@
englischen
meister
1978
esische
Fertig@@
Fried@@
verlängert
Cross
integrating
remedy
Universal
LL@@
Büros
Hussein
Feier@@
lehnt
essence
Avi@@
transnational
Amtsblatt
datei
Besonderheiten
grap@@
-in
half-@@
Barcelon@@
Frattini
demonstri@@
Beri@@
Vin@@
Problem@@
Exek@@
geholfen
retirement
anstal@@
entries
sentence
veränder@@
pft
vorherigen
Yo@@
discrimin@@
Metho@@
Meanwhile
annually
Einkommens@@
behindert
Häu@@
einzustellen
FINAN@@
privati@@
begangen
Kredite
Funktionalität
scre@@
wäs@@
aggressive
predic@@
Annäherung
Stal@@
abzielt
räf@@
Linien
Tom
Natura
koordinieren
directions
bir@@
cooking
pricing
aktualisieren
shir@@
Class
drafted
Flugzeuge
anzugehen
Congo
olds
iere
ossen
BSE-@@
lte
Interior
cancel
thoroughly
Zü@@
namen
Zo@@
MON@@
Nichtraucherzonen
Dritter
fusion
vermögen
setzungs@@
reichende
strit@@
Feder@@
PPE-DE
Fün@@
gerech@@
Solidarity
Anzeige
ough
ausgenommen
Fif@@
Verhaltens@@
asen
artificial
künfte
Schaf@@
Kron@@
lichste
Charme
schte
Division
PA@@
thesis
defizit
Guinea
fassungs@@
boden
effektiven
vorherige
alleine
Menschenrecht@@
Awards
jemals
thanking
Liikanen
officers
Abwicklung
Bett
Soziales
einzelner
Aro@@
flan@@
sett@@
Gegebenheiten
Romanian
Präz@@
REACH
kanz@@
ords
Wiener
hazardous
unterwegs
aton
Doma@@
größt@@
steten
seminars
suggestion
ät
Radio@@
imagin@@
Brow@@
Studium
bass@@
atie
pet
Eisen@@
peak
ernste
ovi@@
Handy
banned
eric
ation-@@
schwier@@
victim
Dampf@@
ebs@@
cheese
checking
stret@@
ę@@
anlässlich
bisschen
Hilfen
ämpf@@
solving
vels
magic
Bedingung
advoc@@
Glei@@
Designer
kreu@@
stanz
deutet
Alpen
twenty
Muse@@
Palestine
sound@@
reibung
lower@@
Gallery
sorganisation
elegan@@
lia@@
angemessener
Abstand
Tochter@@
tries
Colle@@
Motto
para@@
Scientific
stab@@
capability
bots
ι@@
gerichteten
empha@@
survi@@
extremis@@
zweif@@
infec@@
clearer
Registri@@
tails
Nuklear@@
Let@@
gases
Rak@@
unterrichtet
ruf
jar@@
Ern@@
Verbindungs@@
verankert
1967
Eigenschaft
Entstehung
Som@@
berechtigten
höh@@
grü@@
gewisser
Deposit
lav@@
ökonomische
zuge@@
einheit
ces@@
Ron@@
Objekt
Inflations@@
lay@@
esta
ef
Gru@@
Juan
dat
bra
moderate
snow@@
bearbeitet
schn@@
condemned
Má@@
trans-European
obtaining
AF
promotes
gratis
activated
practically
mithilfe
Medizin
PP
gesunden
bilder
Einwohnern
consci@@
dlichkeit
Singapore
Taliban
steigenden
procedural
iny
eigenem
CoR
Wetter
genetically
aufrechterhalten
Tanz@@
cit@@
damaged
SV@@
Shanghai
durchschnittliche
gele@@
beam@@
Sowjetunion
34@@
writer
1975
getötet
FF
sos
tia
oul
lief
Minimum
kra@@
Non-Smoking
6-0@@
geladen
Wärme@@
mische
Operationen
23.@@
XML
Integrität
Dé@@
automation
fires
tat
convince
torture
bases
resist@@
doctors
impetus
SME
Beendigung
Santiago
volcan@@
ington
rez
phil@@
Rechtsa@@
rel
worker
quarters
lier@@
aktiver
utter@@
vorteil@@
zeuge
t-
angem@@
Nonetheless
recei@@
Medizin@@
returning
Smith
Autor@@
validity
reit@@
inwieweit
open-@@
workforce
Korrek@@
sporting
ista
authentic
Migranten
erbringen
seminar
ISCH@@
18th
awar@@
Sevilla
currencies
Anwen@@
weib@@
Deep
MARK@@
aturen
Kinnock
aten@@
Beitrittsverhandlungen
holes
Dienststellen
hört
Wort@@
ULT@@
aga
dental
deutscher
forecast
luft@@
droht
engere
Certi@@
enting
gutem
ationale
isk
begleiten
Between
mitig@@
Fehlen
ues
Schmer@@
zauber@@
untergraben
dün@@
Verhaltenskodex
avoiding
Lom@@
Rechtsprechung
Niederl@@
adel@@
Optimierung
Indem
EU-Kommissarin
wahl@@
schaftliche
Flüchtlingen
reale
Regarding
schaf@@
Kongress
weaknesses
kostenfrei
Feld@@
lined
ре@@
beding@@
Om@@
combining
arbitrary
blame
churches
keen
Tochter
fiable
regelmäßige
länen
Sper@@
verwirklicht
Install@@
secured
uen
usi@@
cali@@
state-of-the-art
spei@@
russ@@
Gesetzes
ahr@@
akte
Schienen@@
approx
rid
unmittelbaren
controversial
ablen
favorite
BAS@@
buil@@
harm@@
ext@@
hoped
forderungen
beliebigen
Lösungs@@
Terminal
schönes
suspension
ordn@@
sofa
1.2
Wiederein@@
ess-@@
Journ@@
wolle
Colum@@
schlechten
Additionally
mini-@@
dena
enha@@
Look
Zufriedenheit
ARB@@
leather
ausgelöst
gungen
Beobachter
schaftlicher
isierte
exklu@@
terin
Hierbei
teilgenommen
170
spä@@
teacher
onder@@
energie@@
communic@@
vorsch@@
Millenni@@
Zigare@@
founding
atile
Jav@@
choosing
ENN@@
Unterhaltung
secret@@
Anreiz
prominent
bureaucratic
Rand
wig
Clear@@
calculation
verhältnisse
phas@@
inspections
Rü@@
fears
Broad@@
trennen
lassung
carrier
expan@@
Profession@@
1976
weren
schol@@
Current
Gemüse
Excellent
preparatory
plötzlich
drucken
Johannes
bestimmung
Traum
docu@@
geschlagen
proving
NAT@@
amoun@@
wake
one@@
angeblich
aps
lications
manifest@@
Wille
Fris@@
Finanz-
ears
Aktivität
downtown
OME
eus
SMS
Verfasser
worry
verhe@@
exam@@
vorzubereiten
passende
ны@@
como
creature
sist@@
defiz@@
compos@@
watching
ques@@
Intern@@
univer@@
master@@
writ@@
chendes
zahlreicher
broadly
2050
dazu@@
inakzeptabel
insula
fossi@@
EIB-@@
erlau@@
entrums
aufeinander
ilität
Liberal
vielsei@@
Studios
geschäft@@
pragmati@@
Consi@@
digkeiten
amen@@
Trennung
gefolgt
kommerzielle
Italien@@
ceremony
Lehre
bezahl@@
Opfern
Aufsicht
Hence
semi-@@
ommen
separately
oberen
tende
tigsten
kurz@@
bags
ranten
GBP
Flüge
stood
twelve
schwerer
suchte
Haushaltsjahr
itarian
isher
gemeinschaftliche
silver
sl@@
Emission@@
radiation
ersuchen
Rep@@
thr@@
ministerin
Leuten
fuhr
konz@@
twen@@
Elektron@@
Quali@@
TEILNEHMER
awards
Mom@@
privater
RI
fried@@
roles
zeitgenöss@@
hire
annt
parado@@
Laufzeit
tägliche
Strukturreformen
Gärten
VA
dner
law@@
Hoheitsgebiet
chemischen
Konstruktion
dachte
internationales
aes@@
performances
Israels
vereinbarungen
graphical
Sus@@
Obviously
End
alla
Erreichen
spruch
autonomous
Ostsee
thly
lug
lities
FISCH@@
borro@@
nesses
outset
separation
uma
bian
Communist
Johannesburg
shaped
Schlag@@
vorgesehene
receipt
Zusammenfassung
Zoll
Frank
usti@@
Begrenzung
betten
Selb@@
PARTICIPANTS
Statement
Frau@@
Frontex
Wahrnehmung
Satelliten@@
Schnitt@@
thin@@
Berat@@
esslich
determining
Bosni@@
dominated
sharp
B.@@
MD@@
Heritage
anne@@
hibit
deter
batt@@
Renaissance
Zusage
Laeken
nonetheless
Banglades@@
ungsplan
tube
beitrag
Palästinenser
counting
temperatures
silence
organ
kritisiert
chro@@
Tuesday
valuation
Whit@@
Eigentums@@
PCs
Künstler@@
schreiten
Koordination
Roo@@
eindrucks@@
abel@@
Übermittlung
fate
aterie
grand@@
commerce
unstable
fliegen
GES@@
Zugangs@@
Seh@@
eness
Pflege
expressing
sq@@
Rechtssache
dis
friedliche
alarm
ürzt
hause
warm@@
notify
environments
1982
sident
stechnologie
Äußerungen
Installations@@
Symp@@
tox@@
hrt
fenster
passes
prüft
Verbrauch
laser
bark@@
Stich@@
Galerie
lacking
ар@@
Wettbewerbspolitik
Ratsvorsitzes
consist
untuk
economics
Kernkraft@@
Grou@@
europä@@
1.
wozu
mentieren
enchan@@
stringent
gewer@@
Ordner
Viviane
Spy@@
statten
nutri@@
vertei@@
Forschungs-
schrau@@
breites
survival
Regimes
sole@@
shofes
resident
donor
convers@@
bic
palette
vereinbaren
vorzuschlagen
konstitu@@
länder@@
broadcasting
gelag@@
149
xy
Gültigkeit
medicinal
Buddh@@
isn
eingerichtete
verbindlich
Währ@@
extends
Milosevic
identical
JP@@
ax
ameri@@
Eck@@
pipeline
Wireless
confusion
Erneuerung
interinstitutional
disappointed
Medical
vel
gebenen
einheiten
ueber@@
Cathedral
ices
OM
lakes
grew
patch
shire
Olympus
chtigkeit
Editor
ours
Geburt@@
verknüpft
non-governmental
Eigentümer
GASP
vernünftige
standardis@@
auszubauen
feels
Soweit
oes
schend
nachdenken
Konvergenz@@
VIC@@
bekräftigen
liness
Light
orient@@
Ath@@
modernes
ison@@
Merger
leid
Bewerberländer
lagern
annte
humans
Übersetzungs@@
probieren
jet
Regul@@
bag@@
electronics
Right
roughly
bedingt
pregn@@
schil@@
cleared
zügen
postp@@
unlike
celebrate
Indonesien
ied
wissens@@
Auskünfte
Sarkozy
Woo@@
ktiver
craft
verstößt
Finanzierungen
Hir@@
doctor
Nahrungsmittel
visitor
ver-@@
alliance
Alpine
Beitrittsländer
Brok
Aufnahmen
Realisierung
rechnung
multimedia
Rich@@
trags
regen
vergleichen
Aktiv@@
notion
airo
Zugleich
consolidate
Prozent@@
DIN
Entschädigung
abgesch@@
Welthandelsorganisation
Ira@@
multip@@
Cs
izing
Carlos
as-@@
filling
Ric@@
Flugzeug
dairy
Verts
Freedom
Jobs
läge
näh@@
cript
progno@@
rank@@
harmony
Vul@@
Choose
License
Nie@@
households
Menschenhandel
würdige
ance-@@
Drittländer
äußerte
grüne
kids
brain
Zielsetzung
bevorzu@@
Popul@@
kapazitäten
ös
Aufrechterhaltung
pione@@
verwand@@
Herrschaft
98@@
Bewegungen
ruled
api@@
anen
Experten@@
beleu@@
ück
Boli@@
örung
Büro@@
1983
Kirchen
Karriere
Snow@@
einmali@@
Akti@@
feiern
ßes
plain
vised
tariffs
officer
indispensable
Gum@@
dangers
score
recep@@
IEN
rachten
nö@@
dez
engl@@
assumed
Bezahlung
Internetseite
schnitte
Neph@@
auszur@@
porte
ger-@@
tatsächliche
Tennis@@
argued
bas
Archit@@
anci@@
lear@@
reser@@
stern
freundlicher
embar@@
Cross@@
railways
lesson
stecken
Einbindung
geschätzt
Qui@@
Everyone
executed
deadlines
messe
Taus@@
Minde@@
schwedische
Konflikten
gebnisse
21st
ellen@@
Panel
75@@
Anders
zurückkehren
circle
erwähnte
geber@@
scann@@
namens
immer@@
folgendes
Sak@@
Jak@@
backing
extern@@
formationen
onian
restra@@
engineers
recommends
neben@@
Datenbanken
125
confron@@
halts
ague
Voyager
ecks
strich
incompatible
Inn@@
AUF
OSCE
fühlt
Inanspruchnahme
Frankreichs
2010-@@
teilnehmenden
knapp@@
socio-economic
gewählte
zivilen
pig@@
maß
Trump
Aufenthal@@
free-@@
backs
mation
commonly
dening
Ankündigung
erweise
MED@@
broch@@
101
Oliven@@
ulen
UP@@
107
dging
schein
arab@@
Weit@@
exploring
serklärung
zten
denied
у
Bildschirm
fresh@@
Anregungen
strom
Beweise
tensions
euer
LIFE
typische
ä
Evaluierung
nic@@
Gewi@@
wickelt
eingerichteten
rom
dex
Geschlechter
Mä@@
Cala
ALE
bal
region@@
specialities
prochen
führender
EK
eken
lichten
technologien
pact
Geben
strukturellen
gezahlt
world-@@
jähriger
schützt
nachhaltiges
loved
interview
inher@@
bestens
Ang@@
geordnet
24.@@
shaushalt
vielfalt
Überra@@
Rum@@
definitive
doub@@
favor@@
rubber
systematisch
U-Bahn@@
beteiligung
Advanced
Moskau
contradic@@
Cannes
on-line
Gegenwart
wording
globalization
Desktop
sichten
Att@@
Kluft
rekten
time-@@
Criminal
bean@@
guides
Fortsch@@
AU
yl
konkurri@@
stieg@@
aggreg@@
Ferien
üblich
wai@@
Bonus
Einfuhr
Orienti@@
column
vessel
starker
utili@@
ansonsten
photography
qualifizierter
lager
engagiert
Bolkestein
gefangen
Ermittlung
Heimatland
conci@@
punk@@
porno@@
AKP-Staaten
wiederhol@@
ruhiger
vertrag@@
Airways
abund@@
Picard
Bün@@
pos
corri@@
ruption
Simbabwe
itter
Mehrwertsteuer@@
MIT
coinci@@
Live-@@
Unit
sache
Cardiff
BE
noticed
Betre@@
Come
erneuerbarer
falschen
pron@@
chteten
gra
lektu@@
Fähr@@
Incre@@
schöner
FER@@
modest
tags@@
Zwecken
atorium
frischen
ünd@@
posit@@
globally
BU@@
press@@
pole
tlicher
gesunde
rah@@
orten
ask@@
Untersuchungs@@
belegt
fashi@@
isolation
fluss
funden
distortions
chef
reichsten
teenth
ow
stitution
zim@@
Drive
einziges
Effekte
angebo@@
vernünftig
errichten
ditionen
ssi@@
hygiene
schwerwie@@
textiles
employee
Sax@@
theat@@
verleiht
bedauere
Works
US-Dollar
olen
Harmon@@
amo
vorkommen
Stor@@
personen
draw@@
fassten
expl@@
bewirkt
zigen
accepts
Workshops
1968
fizieren
änen
characterized
Armen
Mountain
islam@@
NOR@@
Rechtsakte
Consulting
proto@@
Argentinien
Ji@@
Berater
Fro@@
repa@@
stan
News@@
sto
asti@@
Hub@@
на@@
neighbor@@
zukunfts@@
renewal
mündlichen
herauszu@@
Clearly
unanimous
intermedi@@
Beteilig@@
Straftaten
pleas@@
ś@@
Double
dell
begrenz@@
survive
liances
erre@@
-to-@@
sons
gebnis
atta@@
verbieten
Aufruf
Blin@@
Angeles
Cyber@@
Aires
Pass
solven@@
accompanying
jer@@
Wettbewer@@
sak@@
Poli@@
stet
Textes
Privacy
schätz@@
Schnei@@
cost-@@
show@@
IVE
196
introduces
lichere
Holding
edit
paradise
Buchungs@@
verkauf
deser@@
häu@@
sprin@@
AB
u.@@
ultur
voranzutreiben
konfli@@
databases
Obst
adi
Gemeinsam
uneingeschränkte
genauen
weigh@@
tening
beauftragten
ank@@
Höh@@
müßte
ausführen
inequality
Aufteilung
rejection
reibern
RSS
nie@@
geschle@@
profound
Stellvertreter
Against
jugoslawische
bevor@@
optical
tless
112
haven
automated
mic
defense
,5
Kampf@@
Konfiguration
consolidated
nische
Milli@@
tool@@
hosting
limiting
Genf
Leonardo
districts
appreciation
regulators
Verhinderung
eling
wachsen@@
rob@@
nennt
Freuen
distribut@@
bad@@
gram@@
girl
detailli@@
verweist
volu@@
Hitler
disabilities
TAC
abandoned
orie
Ernst
WEI@@
AdR
chambres
ausger@@
bread
verbreit@@
Additional
FOL@@
zuverlässi@@
längere
konto
akt
Gefähr@@
entstan@@
niedri@@
steckt
enorm
ignored
Intel@@
Gitar@@
vorzugehen
detection
surprising
sichts@@
reicher
Korean
tained
dak@@
wan
erfol@@
Chris
Joe
criterion
seits
gesamt@@
legiti@@
Buenos
Karten@@
rehabilitation
heu@@
translations
stie@@
vorn
schließe
Strafverfol@@
erstatten
lla
Features
Prüfungen
machung
Loy@@
annul@@
achtung
sortium
Storni@@
Kreis
stechn@@
Passagi@@
jan
Botschafter
Conven@@
badly
chtig
stabile
schrieb
Säule
Fernseher
Autoren
entnehmen
blä@@
achst@@
masch@@
stätte
Mill@@
Fleisch@@
forwar@@
Übersetzungen
immense
akzeptabel
unvergess@@
align
anded
ländischen
binnen
solo
Ansätze
gli@@
ständigkeit
justification
qualifizi@@
kritisch
unlimited
Listen
Hun@@
effektiver
Tendenz
Dolmet@@
streck@@
ria
erbaut
Panasonic
Veranstal@@
zugeben
Chemikalien
furthermore
Orts@@
Naturkatastrophen
beschreiben
vertical
owing
conformity
rhyth@@
30.@@
Wartung
sear@@
Kurse
safeguarding
shots
Coast
Langzeit@@
weekly
flowers
day@@
hilfs@@
Verstöße
wahrnehmen
etary
Milch
sever@@
cargo
veranstaltungen
Tut@@
Cher@@
ventionen
versetzen
chocolate
keinesfalls
Empfän@@
Kommissare
Naz@@
offset
Gan@@
legungs@@
RELEASE
Waff@@
flag@@
tragenen
enttäuscht
auszuüben
battery
Verkäufer
Eig@@
Zentren
accepting
realisieren
übergeben
nutrition
verbindliche
betragen
translate
rie
Anleger
long@@
emer@@
abgestimm@@
interessieren
evalu@@
talked
schlechter
2030
Prak@@
ules
migen
mittelfris@@
fought
Flug
tells
hierarch@@
judges
Män@@
strange
registrieren
AKVIS
Barack
licit
sorgfäl@@
kenntnisse
labels
apar@@
abzuschließen
Priority
1990s
Anzeichen
view@@
komfortabel
admission
affir@@
sien
Close
Fusion
Taste
leis@@
independently
flotte
beauftragt
credits
Rol@@
tment
beitreten
she@@
uph@@
Reader
24-Stunden-Rezeption
Pit@@
allies
essed
Bedienung
clarification
einmalige
ouses
Öffent@@
3.0
wishing
Elevator
gegrün@@
Vollendung
Jahrzehnte
disman@@
WE
fließen
thoughts
leihen
momentum
ruppen
exhau@@
Reb@@
gan
telling
Fenst@@
ware@@
Particip@@
nachkommen
reiterate
Verschlechterung
fertig@@
incorpor@@
DEN@@
acro@@
х
sert
Öffentliche
freig@@
Navig@@
verhandeln
3D-@@
Manche
emmnisse
Besitzer
CT@@
ßig
gle@@
hl
verbin@@
Reserv@@
VIII
paintings
Handels-
Christopher
Officer
married
Cold
bath@@
Premium
sere
adet
restriction
hiermit
Sant@@
beruf@@
fragten
Marktan@@
Entschließungen
terte
piano
leidung
ffer
linking
weich@@
mende
glu@@
Tragödie
HR
Region@@
lohnt
größtenteils
zutiefst
Lieb@@
Sozialfonds
alties
right-@@
Dür@@
mini@@
funk@@
Klaus
Lobby
günstig@@
ruhen
kenntnis
gewünscht
dimin@@
accelerate
Horiz@@
Argu@@
tini
Ibiza
inbegriffen
abeth
EPA
Yu@@
erischen
Luxus
Flughaf@@
bereitgestellten
Water@@
nien
anter
mier@@
Weekly
schmerz@@
John@@
Representatives
ausgelegt
Gebrau@@
Privatisierung
taught
recy@@
explicit
zio
angefangen
Netto@@
gru@@
rivers
nee@@
Protok@@
enthal@@
zusprechen
Bak@@
pf
echt
Unterdrückung
hig@@
Hannover
ester@@
anno@@
unterstrichen
accessibility
strebt
hectares
FORM@@
verify
fig
laboratory
advances
anfän@@
grave
hervorra@@
längst
conten@@
securing
controller
suspici@@
Hôtel
grafischen
Ear@@
Put@@
Stei@@
gemis@@
faktor
zumal
nördlichen
uli@@
implemen@@
Versuch@@
äden
cut@@
fehlende
Halbinsel
seiten
Army
searching
uk
frie@@
turnover
VIS@@
incredible
erc@@
oods
Innov@@
richtete
Legitimität
scenery
entrepreneurship
gathered
fän@@
і
osop@@
3.5
zuführen
tschechischen
Minder@@
etzung
conve@@
jahre@@
izz@@
interpreted
Gegenstände
Host@@
abilität
Cubase
cris@@
sendet
eco@@
RS@@
streit@@
sierten
flash
approxim@@
Wahrscheinlichkeit
orte
Zahlreiche
Visi@@
fifteen
Chal@@
Gewässern
pin@@
Flotte
tique
Agen@@
gear
1973
accused
Scheitern
seas
angeben
fault
atmosp@@
Komple@@
widri@@
dev@@
anzen
Erzeug@@
gelegte
transformed
systematically
vian
Finanzierung@@
enced
Parks
oppelt
thei@@
ades
Augenmerk
schiff@@
Anweisungen
panels
Jahrzehnt
amerika
permanently
centrally
zustand
künstler@@
überwachung
Instanz
abgehalten
cha
Head@@
klares
medizin@@
bands
Abstimmungen
то@@
erweiterte
erschein@@
differen@@
Ganzes
breathtaking
durchgesetzt
eras
31.@@
Job
hou@@
vermis@@
Mexi@@
realized
supplement
Hill
Nielson
Attraktionen
erreichten
strive
bürgerschaft
Commun@@
newspapers
hur@@
mption
Verwaltungen
Af@@
Landwirten
genetisch
Anhänger
ürz@@
verbo@@
schaden
transpar@@
Nob@@
cache
enforce
Fei@@
Ausgang
op-@@
Statute
1977
E-Mail-@@
skep@@
ausgegangen
Wü@@
Walter
fat
therapie
Satellit@@
ambitions
4th
Schaden@@
Sep@@
Progress
Spi@@
Above
IZ@@
end-@@
tight
tail
Sand
distribute
sinstrument
Ruh@@
Breitband@@
Eigentums
Mé@@
män@@
begrenzen
Schatten
generating
walks
gaps
bereitschaft
safer
Aufwand
discovery
krank@@
investor
5th
cotton
advisory
nica
IMM@@
Arbeitsk@@
Finanziellen
diesel
kultur@@
18-@@
indications
LCD
Automobilindustrie
Steel
Andalu@@
straßen
gebühr
Hoff@@
nischen
certificates
hyper@@
Gebur@@
Brit@@
expe@@
cinema
geschätz@@
fur
Spon@@
human@@
instrumente
ption
Standard-@@
approves
sin
minds
Arzt
visas
Gibraltar
Abenteuer
allmählich
encomp@@
Erleb@@
beschleunigt
pillars
materialien
mill@@
Dist@@
Ein-
Angola
regrettable
Aufstellung
schiff
Gefängnis
Ereignissen
zukommt
Grupp@@
POLICY
golden
Besuchern
metro@@
Metern
jähri@@
surfing
Maßnahmen@@
Frühjahr@@
Athens
Alpen@@
intensity
ça
magne@@
Him@@
Hauptziel
Dynam@@
Europae@@
Hygi@@
-Seite
zunehmen@@
Socialists
Vassiliou
recip@@
DO
az
finest
profitable
ehrgeizige
Fahrzeugen
Practi@@
gment
HM@@
Accession
beschluss
themen
thre@@
Brief
rahmen@@
Monte@@
Semin@@
firmen
ignoriert
erinnere
refusal
unterhalten
formula
Timor
zuverlässig
Verhütung
Skri@@
clinical
hoben
1981
Ecke
typen
Erfin@@
Heating
Prü@@
Sales
aki
igkeiten
alpine
spiritual
Angleichung
engagi@@
tranqu@@
Dikt@@
collec@@
nette
objections
Ökonom@@
vorhandene
Bevölkerungsgruppen
Ufer
kin
delayed
vorangegangenen
ückt
Länder@@
user-@@
desper@@
verglichen
impro@@
limitations
Zur@@
Teilnehmern
vermu@@
anges@@
orable
Chancellor
belegen
geänderten
Verzögerung
parent
Proto@@
indigenous
Blau@@
jec@@
dauerhaft
leichten
U.@@
exklusiven
meistens
expresses
Potential
defending
Diagno@@
Ord@@
downloading
odation
ems
delicate
ungsphase
Eurojust
Display
genommenen
Recommendation
auseln
nützliche
charter
unterhalb
Finan@@
high-speed
sek@@
öst@@
E-mail
zügige
Sofern
bedingten
nen@@
prov@@
Tool@@
gewahrt
Implementation
saison
Laser@@
INN@@
landscapes
four-@@
Blick@@
mentsprechend
intergovernmental
Stein
Miguel
E-Fraktion
Hügel
atis@@
frühere
mond
gäste
ika
spezif@@
week@@
sch-@@
Assistance
dre
Kohäsionsfonds
inters
inne
use@@
Directors
conviction
durchsetzen
во@@
deck
deeper
vorbereit@@
handlung
conveniently
po
rue
gehend
incomes
ehrten
embedded
adher@@
Schlei@@
magnetic
separated
Verhältnisse
prefer@@
Logo
Oslo
time@@
luß@@
civilians
Ausgaben@@
disadvantaged
refined
isions
ATA
damaging
Zie@@
Clar@@
reci@@
Nit@@
fuhren
Vergnügen
Bere@@
zerstör@@
betreibt
verschärft
commented
gü@@
fach
12-@@
shoo@@
Onlin@@
COD
sebene
ailed
aciones
Wettbewerber
Democracy
bauten
spür@@
Ausgleichs@@
Arbeiter
mad
zö@@
PE
utive
wehr
REG@@
pressures
rot
angs@@
sinn
torate
Dienstes
Verhältnis@@
gehalt
optimum
abu@@
transeuropäischen
sexuelle
GMO
ety
Luggage
weißen
nationales
korrekte
Wich@@
ausführliche
Spezialisten
299
ò
mirror
sprachigen
big@@
anbietet
stabilen
Touren
Mira@@
Entscheidungsträger
striking
entscheidung
trademarks
Kaffe@@
reine
talent
illon
Supervisory
gefügt
trieb
Contrac@@
verlei@@
Fahrrad@@
valu@@
Lanzarote
CAD
hes@@
accumul@@
beein@@
influenced
Jackson
Ausstellungen
anbieter
liqui@@
Industriepolitik
aya
gezielt
Better
günsti@@
Victoria
Remo@@
Garanti@@
brachten
24-Hour
frustr@@
fluss@@
Classic
Algeria
Beitra@@
Heiligen
nehm@@
sämtlicher
hybri@@
out-@@
lawyers
Mary
Kaiser
2008-@@
Sometimes
defects
unzureich@@
Merkel
gy@@
Word
proble@@
nder
Müller
Zweit@@
Berichterstattung
ernden
pain@@
embargo
startet
Forest
biegen
geschlossene
schulden
bör@@
Stellenwert
künften
Esp@@
Kompromis@@
PHARE
Einheiten
haz@@
benötigten
Zit@@
vorüber@@
sieb@@
klassische
login
ICH
Kernel
ANGENOMMENE
personenbezogenen
begleit@@
Vereinbarkeit
fertigen
commission@@
divide
Aufnahme@@
forestry
berühm@@
unverändert
sad@@
ually
daughter
reads
freies
lifelong
Play
struck
Fat@@
schau
Substanzen
exclude
urged
anstelle
hinein
onte
exo@@
Tätigkeits@@
profession
sozio@@
Hav@@
Heb@@
lehnen
Massa@@
nationality
mineral
verabschiedeten
Age
buchs
Chef
limitation
ungspf@@
ight@@
letztes
impacts
wichtig@@
häusern
angehörigen
wenigstens
Eintritt
tude
abgeschafft
monopoly
ESA
versuche
sional
Wechselkur@@
wofür
athle@@
kulin@@
einsei@@
Küchen@@
G8
Gestatten
punkt@@
Innovation@@
ierend
Weis@@
Abstimmungs@@
Sher@@
Absichten
Sicherstellung
line-@@
Planet
mah@@
Erwerbs@@
berech@@
Herstellern
nutzbar
eingereichten
Einfuhr@@
mp
GEMEIN@@
Statut
Zyper@@
enes
Colombia
Bron@@
eingehende
MT@@
Abgesehen
Managing
Aviation
bist
Christ
milit@@
Treibhausgasemissionen
deutlicher
thos
kirche
dedic@@
Bremen
dele@@
KON@@
freundliches
debat@@
Zusammenbruch
dam
initiate
2.2
black@@
chin@@
ill-@@
tetes
wet@@
geordneten
Vorbild
Watch
unfortunate
Große
gym
Entdecken
RF@@
Statistik
veget@@
Entspannen
EZ@@
aufw@@
Phasen
Interface
boy
distributors
belastung
differently
fairer
Kabel
Bad@@
üben
jur@@
vorhin
DL@@
bedroh@@
expres@@
erzeugung
Premier
rachte
Discover
zügig
olz
ke-@@
Attra@@
Malmström
stehe
classified
migrant
floo@@
Demokratischen
österreichische
ERÖRTERTE
Turk@@
suchten
Deli@@
recogni@@
ältesten
Finn@@
von@@
salt
high-level
veranstaltet
sicherheits@@
agieren
Klar@@
liberalen
realised
Streitkräfte
nacht@@
adresse
continually
zwangsläufig
kompatibel
höchstens
indirekt
electro@@
presentations
wünschenswert
konstru@@
third-country
lassungen
v.@@
reaches
gi
gular
-in-@@
Wechsel
Biokraft@@
Famili@@
Vertrieb@@
gebiet@@
Acht
asiatischen
herrliche
Ersatz
zent
pets
Charak@@
b-@@
celebrated
profiles
ausmachen
vertik@@
.The
Feli@@
preservation
unteren
agne
alternativen
clothes
Treib@@
Facebook
strö@@
abol@@
fizierten
setup
Juncker
foodstuffs
institu@@
öffentlich-@@
formu@@
Gross@@
Fili@@
lows
Münzen
Panorama
arien
Days
Volkswagen
Pazi@@
geseh@@
abhängen
SM
tings
gelung
Begleit@@
resorts
getroffenen
kultur
lessly
Zimmerservice
Regierung@@
Kim
verschiedensten
südlich
iga
demanded
selec@@
temperat@@
operativen
Marketing@@
editing
inia
TNG
profit@@
loy@@
php
Wichtigste
höchst@@
shal@@
Aktionsprogramm
Mobilfunk@@
zi
enten@@
übersetzt
Handlung
deta@@
darfs
fügte
Elementen
Zusammenhalts
mos
Extra@@
consultative
Cotonou
Rather
xx
obstacle
anstreben
dnisse
Spo@@
koennen
Ukrainian
Niemand
motivated
WH@@
entrum
aces
Wag@@
stit@@
Schwimmbad
Gelegenheiten
sierungs@@
Italiens
Operational
instability
exzell@@
ardis@@
licences
organisms
a.m.
Korrektur
begeistert
trails
motions
Richt@@
Lissabon-@@
clauses
schrieben
geni@@
Unterhaltungs@@
File
itten
GP@@
Alexand@@
CV@@
dreht
orian
büro
Wirtschaftszwei@@
riesige
routine
Rechen@@
Dach
Avenue
r.@@
Stabilitäts@@
concessions
denburg
schwi@@
faktoren
XX@@
zuverlässige
Schlacht@@
erw@@
Verkehrsmittel
Strecken
enthusiasm
betreuung
kunft@@
Schwimm@@
Kompon@@
eating
Jazz
Sebasti@@
ansprüche
missible
harte
gements
erfreu@@
kamp@@
Stattdessen
tra-@@
umgekehrt
preisen
Währungen
idealen
cape
gebene
auszuarbeiten
spons@@
NI@@
irgendwelche
enfalls
Gepäckraum
indirectly
herrschende
Questions
mangelnde
selek@@
lands@@
Thessaloniki
five-@@
Stoffen
maintains
abuses
Yor@@
encounter
weitem
classification
Tyrol
tradi@@
besetzt
Prop@@
Voraus@@
abschließ@@
verbundene
Tee
aran
gekauft
dump@@
orities
flüge
gebrochen
Richtlinien@@
Isol@@
Palazzo
arrested
zulegen
gelegten
Fäl@@
-Sterne-Hotel
ergrei@@
endo
disciplinary
Bekann@@
optimalen
Therap@@
beruh@@
Zentralbanken
intensiven
Architekten
iles
waves
kommunik@@
Jugendher@@
Euros
giert
Lido
WWU
anspruchs@@
Ärzte
ry@@
IFA
energi@@
Chicago
attrac@@
coalition
afrika
Programmier@@
CHT
liquid
IGC
JUS@@
Begriffe
Zucker
ember@@
zier@@
aders
wachstum
Einladung
Naturally
Faz@@
.jpg
Wetter@@
Easy
skap@@
ILO
murder
maker
Gesundheitsversorgung
schicht
fruits
mole@@
Rohstoff@@
pflicht
familien@@
gefällt
cultiv@@
Wahr@@
deleted
dierung
Leid
vermehr@@
Retur@@
broadcast@@
API
hot@@
aka
Harbour
eman@@
Montage
ossen@@
gäbe
boarding
distor@@
hinzuweisen
Danke
Almunia
arises
yellow
1974
angestre@@
geeinigt
Mahl@@
dynamischen
kennen@@
rische
satell@@
definitions
clari@@
genutz@@
Rüst@@
ien@@
shr@@
gescheit@@
Hit@@
Taxi
atur
Soft
turing
messer
gerin
deckung
pflan@@
socially
Wiederaufnahme
ole@@
ook
Fortschritten
listened
mann@@
Ungleich@@
befreit
ecke
zusammenhän@@
Jam@@
continuity
Interess@@
äum@@
Train@@
wholesale
utility
amerikanischer
micro-@@
recru@@
problemen
cycles
Jap@@
drew
advan@@
allevi@@
nobyl
irrespective
Tele@@
existed
Betriebssystem
bulgar@@
porteur
bedürfen
Wochen@@
gerade@@
responding
lasten
U-Bahn
styles
zweimal
außergewöhnliche
32@@
bew@@
Peri@@
transparente
ünde
hüb@@
Service-@@
alistic
Finanzrahmen
urop@@
arme
anschluss
VOR@@
younger
pe-@@
split@@
deny
aters
verbesserten
überlegen
löst
Material@@
Fremden@@
Herberge
schulen
environ@@
clin@@
HA@@
endo@@
Zealand
türkische
Schwein@@
ate-@@
grafi@@
verwöhnen
Blut
ancies
Bestimm@@
Bedrohungen
750
Elec@@
Schattenberichterstat@@
atte
Allgemein@@
Rechtsetzung
eni@@
ystems
zulässi@@
imperative
Hotelsafe
Anreise
fair@@
suddenly
enemy
ermutigt
SO
hob
veri@@
gefäl@@
Umweltschutz@@
Abu
undes@@
kompletten
Navigation
ampagne
CAN@@
Erbringung
Siena
verehrten
beob@@
räte
discretion
unterzeichnen
Tokyo
glo@@
cool@@
LEG@@
entwickel@@
incorrect
TI@@
contest
aga@@
Flä@@
Flüchtlings@@
bears
prompt
KS
tv
behinderten@@
eingeh@@
Effektivität
kompetenz
untersagt
Veget@@
reinforcing
practic@@
completing
hausen
brutal
Anschließend
freiem
grid
networking
0,00
unmittelbare
befür@@
Lev@@
o.@@
robu@@
ordnungen
exklusive
Heim@@
verschul@@
Kä@@
abe@@
parall@@
theast
Benjamin
aca
cattle
Arzneimitteln
ukra@@
ssa
Fitness
RC
enberg
Beobachtungs@@
aufgeführten
Railway
Nap@@
-System
Än@@
Temperaturen
orca
σ@@
onymous
distinct
arks
48@@
seed
itar@@
LateRooms.com
bah@@
Breit@@
Befug@@
gefährlicher
Apache
bere@@
cooperative
vest
Amaz@@
Redu@@
boundaries
güter
safely
Tatsachen
Überna@@
grenzübergreif@@
conven@@
knowing
ş@@
WOR@@
alive
wache
Dienstag
advent@@
bration
homepage
ense
ergie
gemeldet
Zauber@@
Palästina
Gesamtheit
Asyl
inspiration
Bali
macro-@@
JA@@
Implementierung
annten
stabili@@
eicher@@
Moderne
Terr@@
runden
gaming
Prestige
abteilung
expects
häufiger
amtierender
Six@@
Nachbarschaft
OG@@
classi@@
Erfassung
Application
Vertiefung
Straßenverkehr
Dir
evil
Mitgliedsstaaten
sau
endete
vie
impres@@
aluminium
kör@@
Materials
DS9
vielfältige
thirds
LU@@
erzeug@@
albeit
seas@@
beln
Buffet
Temperatur
Police
rigorous
Finanzminister
isc@@
Afrikas
Alkohol@@
verkauf@@
gebiets
earned
Subsidiaritätsprinzip
sendung
Parlamenten
territorialen
Stil@@
verbände
latein@@
PSE
establishments
Geschäftsbedingungen
Dringlichkeit
Archiv
Adriatic
defines
gig
Abon@@
orn
Herstell@@
municipal
Auseinandersetzung
Hübner
fache
tausende
Kathedrale
alb@@
orious
Ben
oth
diesmal
witness
privatisation
Entschließungs@@
acher
träch@@
abel
Mineral@@
ceram@@
ganz@@
preserving
verlu@@
activate
distinguished
Unterneh@@
modelle
ments@@
Finanzielle
Raf@@
Luftfahrt@@
endeavour
zusammenzu@@
frisch
Birma
richtlinien
Nepal
trademark
gather
schritt@@
Technische
matches
lens
luggage
workplace
asting
Kabel@@
single-@@
Reichtum
lateral
1960
Ash@@
tip
laun@@
Prioritäts@@
killing
perman@@
recruitment
Hongkong
emotional
Architek@@
fabri@@
ordnen
bedeutend
zwecken
FAQ
Spuren
recalled
og
Mailand
mieten
stunden
Profi@@
anxi@@
ishment
neys
gezielte
verbleibenden
Top-@@
Sicherheitsrat
bund@@
Wikicars
Schließung
EZ
gelang
spru@@
Regulations
feier@@
Spek@@
Straß@@
läufig
Ple@@
ERDF
wehr@@
Tennis
entsprechender
interference
unkte
vorrangigen
ärm@@
geschütz@@
255
LD@@
Verein
beat
muy
entru@@
Toi@@
coordinating
transatlantischen
Koso@@
auseinander
Nobel
Schwach@@
Voraus
fasst
vul@@
vorbereiten
gehand@@
raschen
Religions@@
Aufgaben@@
Legisl@@
beträchtlichen
sty@@
Sekret@@
CAS@@
WAR@@
überschritten
vorsichtig
anzusehen
tism
kalischen
ausgehend
vicinity
bewegungen
Überwindung
Tony
conscious
shil@@
Basic
verbreiten
state-@@
äußer@@
featured
stel@@
Schluss@@
quo
charging
erklärung
drit@@
tit@@
Vielmehr
resistant
there@@
äle
Algerien
duly
Gemeinschaftsrechts
änderungs@@
Camp
Production
nau@@
detec@@
pre-accession
Reihenfolge
inevitable
2.1
Erkrankungen
élé@@
datum
deinen
dogs
segments
asy
stating
unilateral
1500
angeneh@@
empfeh@@
abwechslungs@@
Leu@@
korrigieren
toi@@
Beibehaltung
Flächen
retro@@
afri@@
yield
voranzubringen
selbe
dioxide
Liquidi@@
nick@@
schwäch@@
VIP
Seiten@@
ind@@
passive
Studies
Foren
SIT@@
Juden
quer
Hur@@
kill
carries
nig
Liter@@
itären
spartnern
gewerb@@
Glaub@@
tunnel
ismäßig
Presiden@@
elite
wissenschaftlicher
Proc@@
perform@@
Could
ritts
Nachteil
founder
ühle
PPE
sives
ehl
einsetzt
tiny
Griechenlands
Aufklärung
andau@@
hang@@
tat@@
last@@
ec
benachteiligten
tigkeits@@
anerkannten
sym@@
partition
umfassender
blocked
SIM@@
avoid@@
ignorieren
TN@@
OP
spreis
pré@@
MwSt@@
Shops
Ring
Göteborg
Sah@@
Granada
demnächst
häl@@
äuse
bn
signifikan@@
mails
iet
Lodge
ellem
bekanntesten
ont@@
Companies
höhe
innovativer
appointing
sympath@@
terne
Hague
geringfü@@
emphasises
enburg
exploited
Grande
fai@@
telecoms
aushal@@
fits
10,@@
jum@@
unanimity
prises
ausgedrückt
Ras@@
beacht@@
bräu@@
ör
Alkohol
insu@@
Schal@@
engagieren
Luxus@@
floods
Sozialdemokraten
issuing
competing
FP@@
UNIC@@
perceived
MM@@
taste@@
Hunger
Type
delivers
eingegangenen
intensivieren
ehrgeizigen
turn@@
Betrugsbekämpfung
möglicher
ρ@@
räder
Benz@@
Leone
Child
thetic
deployed
hoc
Schlu@@
festivals
lad@@
vermei@@
gging
Ton
karten@@
reihe
zuhalten
container
mehrmals
you@@
Queen
Skla@@
Demonstr@@
Variante
Gelände
Summer
Konz@@
verschoben
Frage@@
anderswo
Leidenschaft
capit@@
Unlike
Castell@@
exclu@@
anien
genügt
veränderten
lichung
Chall@@
irgendeiner
bien
assisted
strei@@
chances
enswer@@
congratulations
stry
Demokratisierung
ark
Store
Funktions@@
repression
verursachten
zerstören
chil@@
Rate
sac@@
votre
DM@@
finanzierten
N-@@
Drittstaats@@
cat
dow
Dau@@
128
Ausfuhren
enrich@@
Berichterstattern
Sofia
lifestyle
Kunststoff@@
breeding
kauf@@
deterior@@
aver@@
bricht
ror
circum@@
alco@@
dringlich
concer@@
intel@@
fet@@
kompli@@
MEDIA
schlage
saubere
marriage
chene
culinary
forecasts
gewiss
Juli@@
jan@@
ocean
circuit
kat
verteilen
Schokol@@
resolving
Adam
cooling
Schottland
anträge
vorne
ihrerseits
93@@
gebrau@@
Cent@@
getestet
László
unterstützten
headed
cel
kommission
musik
muster
eleistungen
blatt
verliert
nowadays
accoun@@
cycling
ech
neueste
arro@@
einbringen
AFFAIRS
Segel@@
arriving
Hz
bare@@
esco
helicop@@
Friedensprozess
rupted
gement
Kriterium
therap@@
â
nachhaltiger
Teu@@
Tschech@@
oping
Ausfahrt
Superior
reproduction
schlimmer
-TV
weitergegeben
Lebensbedingungen
aids
Tep@@
Are@@
Banking
technically
Much
Wikitravel
beschl@@
Gate
Verantwortungs@@
etwaige
prints
beachtet
mathemati@@
rechn@@
licensing
aliz@@
Anla@@
ausgeübt
organising
geschoss
methodology
Krimin@@
fragile
acken
moderni@@
sont
09.@@
tainer
scra@@
shoes
mündliche
Que@@
inevitably
ausführ@@
wire
Tai@@
Schluß
Feuer
class@@
Störungen
penet@@
Chan@@
Disk
relevance
verantwortung
divisions
cz
poss@@
fici@@
Sämtliche
einzigartig
bestehender
Aktivi@@
mort@@
E-Mails
Fertigung
bekistan
disch
explanations
counter-@@
ungalows
Funk@@
tron@@
verschieben
Ungleichheit
1,000
Nachfolger
costly
Kommunal@@
stra
gesetzliche
Hyper@@
Pedro
reboard
Jury
pet@@
NAL
sightseeing
shaushal@@
geschwindigkeit
detention
Sorgfalt
deciding
Gegen
Junior
Jon@@
Kandi@@
Amp@@
verbrauch
weapon
Add
jack@@
attach
Alpha
envis@@
Umstruktur@@
ALL
Geber
vere
25.@@
warranty
elimination
Whilst
zonen
Artikeln
supran@@
skill
rang
niedrige
opping
Offizi@@
Anpassungs@@
colonial
touched
Auftraggeber
Glücks@@
Urban
ries@@
Sym@@
Sett@@
schuldig
Biom@@
ausreichen
Konvents
pflanzen
part-session
stehend
SR@@
kov@@
Overall
gency
Quo@@
Associ@@
thaus
transparenter
Swi@@
dah@@
sinken
Fischereiabkommen
preference
Persönlichkeiten
Veranstaltungs@@
gest
Beton@@
dict
was@@
vergleichbar
Chechnya
sweet
Albert
fel
bloo@@
Lizenzen
Tibet@@
thereof
Sech@@
frastruktur
afterwards
besides
Vinc@@
Energiem@@
Quer@@
Manhattan
Wettbewerb@@
erzeugnissen
tliches
ahl@@
76@@
zeugnisse
sheep
fundamentally
contracting
schnelles
intelligente
Ausdehnung
burdens
unvermei@@
Jews
kunst
stahl
Whirlpool
festgehalten
verarbeit@@
evaluated
Publik@@
Enlargement
bün@@
Finanzinstitu@@
Uhr@@
far-reaching
Vertrau@@
Ess@@
Koordinierungs@@
Geist@@
designers
Zeitraums
enor@@
Modalitäten
reak@@
Verpackung
hunting
Disk@@
biom@@
1950
Gleichheit
Bier
Gastronom@@
Freien
mau@@
dependen@@
BOR@@
terror
vorsehen
IMO
psycho@@
Bestandteile
16th
Bell@@
führend
digkeits@@
PRO
förderungs@@
hunger
grundlegend
104
ACK@@
Willi@@
hide
volumes
schlägen
Feri@@
blau@@
äter
Marbella
ordnungsgemäße
brother
Befehl
legitim@@
ausrei@@
billigen
pub@@
Glo@@
temporarily
refurbished
Techn@@
Bench@@
Canadian
reactions
mming
TEL@@
complimentary
Bestands@@
fif@@
studios
inte@@
tif
Konzern
keln
Geschenk
Stellvertretender
lus@@
Facility
Kindes
Familienz@@
bring@@
Solange
complied
2014-2020
mounted
erend
I.@@
damaligen
gesetzlich
Smart
Obergrenze
axis
ware-@@
konkre@@
here@@
Burundi
trials
stufe
geld@@
Gesetz@@
NOT
cod
schall@@
schnei@@
Jack
vollziehen
Gegenwärtig
traditionell
reasonably
Europar@@
visibility
Arm@@
sozial
Henry
arest
Säu@@
Erdgas@@
collecting
idealer
Erdbeben
Luftverkehr
nähe
particip@@
oten
boom
weal@@
collections
Kopie
Seel@@
hn
gli
stellvertreten@@
abschließen
capita
Hindernis
geomet@@
ausgestatteten
erhielten
amin
qualities
Mechanism
zukünftig
forder@@
½
protective
prevents
advocate
Though
glücklich
biotechnology
Norm
außergewöhnlichen
Video-@@
Ebenfalls
chert
abzulehnen
brun@@
preises
tie
christ@@
washing
den-@@
steigende
accompl@@
Spen@@
nun@@
IS-@@
Entertainment
ML-@@
carri@@
Kanal
fundi@@
jed@@
Ostse@@
Rechnungshofs
Tap@@
schlag@@
libraries
TIC@@
geschützten
lifting
ttä@@
APPROVED
draws
speaks
rigen
DVDs
wild@@
konkreter
ergy
rechtlicher
host@@
settle
Nachhal@@
ar-@@
finanz@@
erfassen
sichert
Umweltpolitik
voices
Magic
Thai
prejudice
Leist@@
thilfe
Sensibil@@
ausgeweitet
daraufhin
č
geliefer@@
gründlich
Interventionen
freiwillig
Devisen@@
vorschlägt
Pakt
Tipps
vorausgesetzt
land-@@
Berlusconi
ит@@
engine@@
Wiki@@
PDF-@@
modifications
vigil@@
Mensch@@
Komplexität
befürworte
luck
Guatemala
GL@@
begreifen
modification
ambience
leist@@
pointing
entfallen
Geldpolitik
capital@@
venues
etta
pride
energies
emergence
zusätzlicher
Ungleichgewichte
lagen@@
traf
Thermal@@
drän@@
Orientierung
aving
tured
GEN
pow@@
isierungs@@
Arbeitsp@@
echter
h-@@
spac@@
scenes
pose@@
benö@@
fabric
sigkeit
gelöscht
tracking
Wohlbefinden
mysq@@
erhebt
Auslands@@
ateau
geschaff@@
nachteili@@
Somm@@
UPS
stufen
Stefan
Umwelt-
befris@@
Streitigkeiten
loss@@
anrufen
aim@@
ju
oul@@
Fab@@
Kosme@@
wandern
Hop@@
promp@@
arische
Mount
statt@@
lern@@
Algarve
diam@@
Regulierungsbehörden
EC-@@
D.@@
ardo
bey
Eurobarometer
schriftlichen
197@@
defen@@
allowances
Theater@@
Erika
Vorwand
Exc@@
E.@@
attempted
ames
Nachteile
schalter
inen@@
LT@@
gen-@@
etic
Produc@@
ckers
Label
bestanden
parlamentarische
mobilen
Assoziierungsabkommen
character@@
Schne@@
grati@@
Mittag@@
Gefangenen
schuldigen
configure
78@@
Muslims
accom@@
lieferungen
gehörte
dentally
ovo
mobi@@
Holy
aufweist
gültigen
ernähr@@
Channel
Einfluß
EUROSTAT
path@@
camping
gesundheits@@
exemp@@
drücke
Nordirland
на
folgedessen
Beitrittsländern
Schwan@@
leute
improves
sourcing
symbolic
fulfilling
Theatre
pdf
legisl@@
mutually
titles
Übereinkunft
holung
toll
incident
Rohstoffe
princip@@
nav@@
brand@@
air-conditioned
Russ@@
Griff
RIS@@
Aufstockung
wus@@
Jahrhunder@@
bedeutendsten
REA@@
Affili@@
akh@@
verzerr@@
ranges
polnische
scep@@
Einsparungen
finnischen
ERS
Grafiken
bestellt
Geltungsbereich
Folter
VN-@@
Ausbruch
brin@@
allgemeiner
off-@@
CHE
Being
hit@@
überarbeitet
Cypri@@
Fragestunde
Outlook
ers@@
annehmbar
rüger@@
Nutzern
lend
reformen
Diversifizierung
Begeg@@
Focus
Exist@@
teach
religiöse
er-
stituted
Maßstab
Bildschir@@
Ambassador
Swimmingpool
geltende
Assessment
refu@@
beschäftigung
subsidiaries
sends
Inte@@
outer
Engine
Beschwerde
bindet
schri@@
resol@@
diente
ausgestellt
Fres@@
Monats
debi@@
aufrechtzuerhalten
fizierte
mium
höherer
anmelden
inviting
ORE
scri@@
bedauern
Verstän@@
Verbin@@
lichte
Netzwerke
ex-@@
Hans@@
zeh@@
situationen
Kabelj@@
beschloss
exceptionally
statutory
Lieferungen
CI
locally
oxi@@
bö@@
NC@@
6th
Beschleunigung
besagt
Zentrums
gebern
aufkommen
haltungs@@
zeitigen
bub@@
GH@@
Schwächen
multinational
servative
share@@
levard
Wurzeln
bekämpft
palace
beobachtet
erschienen
treibt
singer
countless
Dimas
threatening
Transit@@
twenty-@@
vorschlags
incidents
probe
subjected
Mou@@
Autonomie
exceeded
Komplettpreise
moon
DNA
teur
entworfen
predec@@
vide@@
deterioration
finishing
Kompromiss@@
up-@@
genheit
dive
astery
übrig
bungs@@
grenzüberschreit@@
criminals
manipul@@
feelings
Sicherheitsrates
gil@@
Spaniens
gemachten
wuchs
Partei@@
conducting
GH
Privi@@
wechselt
embry@@
Gesi@@
Ratstagung
Hart@@
perception
verlust
Zwischenzeit
entfer@@
gründet
schön@@
lindustrie
turel@@
Manchmal
automatischen
screening
Kernenergie
Christen
ratify
Tier
Prix
agung
agenturen
nachzudenken
wü@@
rh@@
Applik@@
dahingehend
Seeverkehr
setzungen
Rock@@
In-@@
Beobachtung
Teilnehmer@@
dari
chal@@
Zeitungen
charman@@
digkeit
eilung
Large
DEBATED
opponents
elektronischer
mailing
Wach@@
Mauer
Peking
Seeh@@
subscription
dio
Mio.
ellers
applicants
WW@@
buyer
Ungleichheiten
Weihnachts@@
OSZE
schaftlich
visions
dlern
sensitivity
Flüchtling@@
stärker@@
Camping
query
market@@
ausschließ@@
untersuch@@
äuß@@
hip
gewann
Schuld@@
gau@@
doppelt
Anmerkung
uniqu@@
einbeziehen
Kf@@
Staatliche
avian
repres@@
malerischen
Kommissars
stir@@
iz
Spirit
thaf@@
Verona
Isch@@
Versand
PX@@
PC-@@
dichte
Stim@@
Telef@@
zugelassen@@
Territorium
wälte
erfor@@
educ@@
emann
eux
Szen@@
Deine
Beispielsweise
Organismen
islamischen
Statt
installing
wunsch
mittag
prerequisite
unum@@
Verpackungs@@
beliebten
anch@@
Weiter
stimulus
Austausch@@
Interview
gangene
vineyards
Fußgän@@
purchases
council
liquidity
tling
ás
excluding
strengere
tremendous
berau@@
termination
clim@@
eingehend
Brü@@
correspon@@
langfris@@
Loc@@
simp@@
Christdemokraten
Angehörigen
kalische
open@@
labor@@
Friedrich
rak@@
diplomatischen
offences
Stadtteil
eable
15th
mitzuteilen
Oxford
abzugeben
Buchstabe
COR@@
notwendi@@
Balance
zte
consul@@
quanti@@
EU-Politik
lying
updating
template
Mei@@
spell
wiederherzustellen
wertvollen
strukturelle
Petersburg
advised
Model@@
Zellen
gestri@@
Beauf@@
Bedürf@@
schü@@
verhandelt
musicians
Audit
Block
optimieren
Eintrag
shock
reveal
essing
stoppen
etze
tar
colo@@
samples
Befreiung
Lufthansa
befreien
setzten
geholt
Event@@
qualification
utor
Custom@@
Rosen@@
selecting
Minderheiten@@
ym
Adap@@
Beamte
abstained
teilnehmer
unverbin@@
ann
beha@@
verzi@@
Repar@@
4379
freiwillige
estic
Zentr@@
Gleichwohl
rägen
ICA
plo@@
therapeu@@
towels
Kost@@
Zertifizierung
sincerely
UP
short-@@
tram
Begleitung
Konzepts
escal@@
Plattformen
pfer
Beitrittskandidaten
Electronic
Zäh@@
Fahrplan
Diskussions@@
vacuum
Mountains
IO
harten
lez
Cav@@
ministerial
eco-@@
.-
warmen
menü
beratung
beschränkungen
fünfzehn
scen@@
spezifischer
climbing
filters
tuna
joy
gebir@@
quick@@
maßgeschnei@@
ao@@
beweist
refriger@@
más
interoperability
konzentri@@
woods
Früchte
metals
Heiz@@
Kolumbien
comforts
Temp@@
erwarteten
vertiefen
kilometers
Politikbereiche
55@@
landing
EWR-@@
statute
acier
ener@@
shooting
gebrachten
Ivoire
studying
openly
GO
Unregelmäßigkeiten
Literatur
stock@@
Nul@@
conce@@
arran@@
VP
zugenommen
gulierung
1980s
versicher@@
Marie
Dich
gni@@
meaningful
Antibio@@
Bres@@
schwarzen
Musli@@
sposition
assign@@
Religi@@
tionelle
baro@@
Creative
verage
erce
dictatorship
webe
wachstums
precautionary
Giovanni
fallenden
leg
compensate
Teneri@@
Handelsbeziehungen
versehenen
dynamische
bedingte
illes
Azur
ländische
berichts
Goals
Rental
langjährige
Baroness
www.eib.org
Technologie@@
Freie
Extremis@@
pursuit
bezauber@@
Neu
Zinssätze
einrichten
Immobili@@
erkennbar
istet
strand
cca
angestrebt
ae
Acro@@
besticht
Lav@@
Cube
Vorbe@@
geschm@@
546
tary
Wilhelm
Innern
lass
plugin
ensystem
commodity
uts
jac@@
Long
Looking
enswerten
attitudes
herausra@@
interfaces
Cru@@
Gesetzen
hilfen
bels
broadcast
zuversichtlich
aufgezeigt
auc@@
betro@@
142
sende
tournament
Organ
eron
schwe@@
Kallas
merc@@
halts@@
reti@@
reader
Interoperabilität
Dialogue
Fokus
DVD-@@
Signale
geziel@@
Rati@@
überschreiten
toxic
aph@@
ziehungs@@
arily
Fotogra@@
Simply
steuerung
vou@@
Asylbewer@@
winkel
laundering
interessierten
detected
la-@@
dust
Ž@@
achel@@
Überprüf@@
Texas
Mitglie@@
dress
dened
requesting
call@@
Gerichts
Schengener
vertrags
resultier@@
agna
aufre@@
kultureller
globe
fasste
Love
ет@@
Besich@@
stütz@@
oph@@
Verordnungs@@
demselben
resumed
außen@@
stabil
vesti@@
xis@@
missi@@
Halbjahr
netzes
alleged
Präsidium
äußerten
Multi-@@
Neuigkeiten
umfaßt
suppor@@
hospitals
await
ller
wedding
Accordingly
seitdem
zweier
verhängt
Landschaften
dreams
statistischen
sozusagen
tico
Mitgliedstaates
lv@@
licensed
Zim@@
Watson
000-@@
judiciary
heil@@
Afghan
z.@@
Grie@@
weiterentwickelt
befindlichen
Exporte
Italia
müh@@
earthquake
parte@@
hea@@
Völkern
Pfle@@
Geflü@@
issu@@
wich
angeführt
maßgeblich
rarely
racing
unified
mixture
Sour@@
eliminating
etwa@@
Sci@@
Integr@@
Tax@@
exquisite
wachen
exhibit@@
meint
navig@@
door@@
repräsent@@
distant
Luxem@@
zeitlich
rangige
Meil@@
menden
Meinungsäußerung
Platform
wertet
3-star
jana
bilater@@
ehr
Gastfreundschaft
geräum@@
serie
potenzielle
Seminar
detect
erschien
stunde
Cec@@
findung
asa
portion
oli@@
Kartell@@
Garda
eigent@@
competitions
informellen
berühr@@
gehör@@
dramatically
emandem
Chaos
sag@@
Rettungs@@
Ble@@
Demokratien
Arbeitszeit
amin@@
Hydro@@
klass@@
Phar@@
Karls@@
Vulkan@@
RAM
FS
Biotechnologie
verschwinden
lon
schieben
poten@@
semi@@
Instand@@
Zubehör
Ausch@@
Gesprä@@
ceilings
Nuclear
Beitritts
streichen
sinstrumente
thumb
Rohr@@
mount
Spanisch
multiannual
sciences
Package
Establ@@
ellung
cam
TRANSP@@
Mühe
mitglied
Rimini
BET@@
mittelten
TT@@
authori@@
fortable
anti
inet
menus
späten
auer@@
296
Zuliefer@@
miner@@
griffs
1969
Vorbehalte
solidar@@
bücher
maßnahme
17th
compet@@
benutzer@@
stren@@
supporters
formerly
Exhibition
infring@@
personen@@
grams
ā@@
Canal
Ganzen
Nachweis
erstklassi@@
Later
Nationalpark
herrschaft
Allow
profitiert
Provider
Stimmung
Uganda
Bestrebungen
produc@@
Oz@@
Gesetzgeb@@
Geburt
Pro-@@
Projektes
relie@@
staats@@
Beein@@
contamin@@
energy-@@
direkter
arena
Gig@@
desselben
lical
bekräf@@
incurred
zwecke
Sty@@
beheben
hopefully
Kommentar
withdrawn
fahren@@
Kühl@@
[...]
